/**
  ******************************************************************************
  * @file    network_ecblobs.h
  * @brief   NN Code autogenerated DO NOT MODIFY IT
  ******************************************************************************
  * @attention
  *
  * Copyright (c) 2024 STMicroelectronics.
  * All rights reserved.
  *
  * This software is licensed under terms that can be found in the LICENSE file
  * in the root directory of this software component.
  * If no LICENSE file comes with this software, it is provided AS-IS.
  *
  ******************************************************************************
  */


#ifdef __cplusplus
extern "C" {
#endif

#include "ll_aton_caches_interface.h"

#include <string.h>

#if !defined(ECBLOB_CONST_SECTION)
#define ECBLOB_CONST_SECTION /* Empty */
#endif
#if !defined(ECBLOB_RUNTIME_SECTION)
#define ECBLOB_RUNTIME_SECTION /* Empty */
#endif

ECBLOB_CONST_SECTION
// _ec_blob_network_1 blob binary, aligned to the cache line size (equal to 64 bytes)
__attribute__((aligned(64)))
static const uint64_t _ec_blob_network_1[16776] =
{
  0x00000018ecbf0050UL, 0x0000000000000000UL, 0x0000000000000048UL, 0x0000001800000001UL,
  0x0000001000000002UL, 0x0000002c0000001eUL, 0x6f695f726573755fUL, 0x305f7475706e695fUL,
  0x0000000000000000UL, 0x000082efca057a7aUL, 0x0000005d0000003dUL, 0x5c00004200802241UL,
  0x1500006008000000UL, 0x000700005c027c00UL, 0x000040005c070043UL, 0x5c0c00430000ffe0UL,
  0x1041204200000000UL, 0x6000004200802261UL, 0x1500000008000000UL, 0x0007000060027c00UL,
  0x0000400060070043UL, 0x600c004300000020UL, 0x1041104100000000UL, 0x20007c0000802061UL,
  0x2002004300080104UL, 0x0007ec0000000000UL, 0x00000000200500c3UL, 0x000000000007ec00UL,
  0x0000002400000000UL, 0x200c004200100000UL, 0x0000000700000006UL, 0x00000001200d0043UL,
  0x201100430007ec07UL, 0x0000000000000000UL, 0x38007c0000802121UL, 0x380200430008010cUL,
  0x0007ec0034200000UL, 0x00000000380500c3UL, 0x000000000007ec00UL, 0x0000002400000000UL,
  0x380c004200100000UL, 0x0000000700000006UL, 0x00000001380d0043UL, 0x381100433427ec3fUL,
  0x0000000000000000UL, 0x0000000210007c00UL, 0x0000006410000424UL, 0x10007c0000000000UL,
  0x10007bc440000000UL, 0x0000000000000064UL, 0x0000000110007c00UL, 0x00000027100b7c00UL,
  0x00000007101e7c00UL, 0x0000002510207c00UL, 0x5c00200138002001UL, 0x2000200160002001UL,
  0x0000006438007fe4UL, 0x100b7c0000000000UL, 0x101e7c0000000000UL, 0x10207c0000000000UL,
  0x38007c0000000000UL, 0x3800042400000002UL, 0x0000000000000064UL, 0x4000000038007c00UL,
  0x0000006438007bc4UL, 0x0080012100000000UL, 0x080000025c007c00UL, 0x000000645c000424UL,
  0x5c007c0000000000UL, 0x5c007bc448000000UL, 0x0000000000000064UL, 0x60007c0000800241UL,
  0x6000042408000002UL, 0x0000000000000064UL, 0x4800000060007c00UL, 0x0000006460007bc4UL,
  0x0080026100000000UL, 0x0000000220007c00UL, 0x0000006420000424UL, 0x20007c0000000000UL,
  0x20007bc440000000UL, 0x0000000000000064UL, 0x0000007d00800061UL, 0x3c007c0000802141UL,
  0x3c0200e300100034UL, 0x0000224406030303UL, 0x01a004e010634303UL, 0x019f000004df0000UL,
  0x3c0a7c0000000001UL, 0x3c0d7c0000000000UL, 0x0080228100000000UL, 0x0800000064000042UL,
  0x64020123156000fcUL, 0x00000000000a0000UL, 0x0003f5ff00000005UL, 0x000000000007ebffUL,
  0x07d403fb00000000UL, 0x640c004300000001UL, 0x2042204200000000UL, 0x00000001640b7c00UL,
  0xfcfa326265000303UL, 0xf8cc3cd000005f6aUL, 0xf6bd1ce300000528UL, 0xf91f463e000061a8UL,
  0xfa2828970000c1b1UL, 0xf33725590000b252UL, 0xf8a928720000b247UL, 0xf931533f0000785fUL,
  0xf082353b0000a1a8UL, 0xfe9c2d7900000775UL, 0xf7542ce70000d0e9UL, 0xf8981f1c0000116cUL,
  0x008022a100001cacUL, 0x0800000068000042UL, 0x68027c0015000000UL, 0x6807004300070000UL,
  0x0000002000004000UL, 0x00000000680c0043UL, 0x0080200110411041UL, 0x0008010014007c00UL,
  0x3420000014020043UL, 0x140500c30007ec00UL, 0x0007ec0000000000UL, 0x0000000000000001UL,
  0x0010000000000024UL, 0x00000006140c0042UL, 0x140d004300000007UL, 0x3427ec3f00000002UL,
  0x0000000014110043UL, 0x008020c100000000UL, 0x000801842c007c00UL, 0x704832902c020043UL,
  0x2c0500c300000144UL, 0x0000000000000000UL, 0x0000000000000000UL, 0x0010000000000024UL,
  0x000000062c0c0042UL, 0x2c0d004300000007UL, 0x7048341700000001UL, 0x000000002c110043UL,
  0x008020e100000008UL, 0x0008010830007c00UL, 0x9000000030020043UL, 0x300500c30003f600UL,
  0x0003f60000000000UL, 0x0000000000000000UL, 0x0010000000000024UL, 0x00000006300c0042UL,
  0x300d004300000007UL, 0x9007ec3f00000002UL, 0x0000000030110043UL, 0x10007c0000000008UL,
  0x1000042400000002UL, 0x0000000000000064UL, 0x4000000010007c00UL, 0x0000006410007bc4UL,
  0x10007c0000000000UL, 0x10097c0000000001UL, 0x100c00430000002bUL, 0x0000000d00000001UL,
  0x0000001510227c00UL, 0x0000002910247c00UL, 0x3c007c0030002001UL, 0x6400200100100035UL,
  0x1400200168002001UL, 0x30007fe42c002001UL, 0x0000000000000064UL, 0x0000000010097c00UL,
  0x00000000100c0043UL, 0x10227c0000000000UL, 0x10247c0000000000UL, 0x30007c0000000000UL,
  0x3000042400000002UL, 0x0000000000000064UL, 0x4000000030007c00UL, 0x0000006430007bc4UL,
  0x008000e100000000UL, 0x000000023c007c00UL, 0x000000643c000424UL, 0x3c007c0000000000UL,
  0x3c007bc440000000UL, 0x0000000000000064UL, 0x64007c0000800141UL, 0x6400042408000002UL,
  0x0000000000000064UL, 0x4800000064007c00UL, 0x0000006464007bc4UL, 0x0080028100000000UL,
  0x0800000268007c00UL, 0x0000006468000424UL, 0x68007c0000000000UL, 0x68007bc448000000UL,
  0x0000000000000064UL, 0x14007c00008002a1UL, 0x1400042400000002UL, 0x0000000000000064UL,
  0x4000000014007c00UL, 0x0000006414007bc4UL, 0x0080000100000000UL, 0x000000022c007c00UL,
  0x000000642c000424UL, 0x2c007c0000000000UL, 0x2c007bc440000000UL, 0x0000000000000064UL,
  0x0000009d008000c1UL, 0x40007c0000802161UL, 0x400200e300100034UL, 0x0000115508060303UL,
  0x00d004e010774005UL, 0x00cf000004df0000UL, 0x400a7c0000070010UL, 0x400d7c0000000000UL,
  0x0080218100000000UL, 0x0010002044007c00UL, 0x08060303440200e3UL, 0x1063450000001155UL,
  0x04df000000d004e0UL, 0x000f081000cf0000UL, 0x00000000440a7c00UL, 0x00000000440d7c00UL,
  0x5c00004200802241UL, 0x156000fc08000000UL, 0x000880005c020123UL, 0x0000000700000000UL,
  0x000a8fff000547ffUL, 0x0000000000000000UL, 0x0000000107c403f9UL, 0x000000005c0c0043UL,
  0x5c0b7c0020422042UL, 0x5d00040300000001UL, 0x00004740ff691869UL, 0x00007fcdff6853ddUL,
  0x00007659ff0e1b87UL, 0x0000790aff9e2e0fUL, 0x0000d67cff6a21f2UL, 0x00007d8afe661372UL,
  0x00009501ffa40c5aUL, 0x00007cd8ff70133aUL, 0x0000231bff56427aUL, 0x0000977fff571ee4UL,
  0x00001a8bff3748f6UL, 0x000028e4ff6b27fcUL, 0x00005280ff1f51f4UL, 0x00003723ff6c0ec6UL,
  0x00005cdbfebc1e79UL, 0x00005c5eff3f25eaUL, 0x6000004200802261UL, 0x1500000008000000UL,
  0x0007000060027c00UL, 0x0000400060070043UL, 0x600c004300000020UL, 0x1041104100000000UL,
  0x1c007c0000802041UL, 0x1c02004300080100UL, 0x0003f60090000000UL, 0x000000001c0500c3UL,
  0x000000010007ec00UL, 0x0000002400000000UL, 0x1c0c004200100000UL, 0x0000000700000006UL,
  0x000000021c0d0043UL, 0x1c1100439007ec3fUL, 0x0000000800000000UL, 0x34007c0000802101UL,
  0x3402004300080184UL, 0x000006c070479670UL, 0x00000000340500c3UL, 0x0000000000000000UL,
  0x0000002400000000UL, 0x340c004200100000UL, 0x0000000700000006UL, 0x00000001340d0043UL,
  0x3411004370479d6fUL, 0x0000000800000000UL, 0x18007c0000802021UL, 0x1802004300080100UL,
  0x0003f6009003f600UL, 0x00000000180500c3UL, 0x000000010007ec00UL, 0x0000002400000000UL,
  0x180c004200100000UL, 0x0000000700000006UL, 0x00000002180d0043UL, 0x181100439007ec3fUL,
  0x0000000800000000UL, 0x28007c00008020a1UL, 0x2802012300080008UL, 0x00d000d03429a400UL,
  0x00000d0000100008UL, 0x0000000200000008UL, 0x00000024000a9000UL, 0x280c004200100000UL,
  0x0000000700000006UL, 0x00000002280d0043UL, 0x281100433434343fUL, 0x0000000000000000UL,
  0x0000000210007c00UL, 0x0000006410000424UL, 0x10007c0000000000UL, 0x10007bc440000000UL,
  0x0000000000000064UL, 0x0000000110007c00UL, 0x0000002710077c00UL, 0x00000005100f0043UL,
  0x1012006300000011UL, 0x0000001100000003UL, 0x101e7c0000000017UL, 0x10207c0000000019UL,
  0x2800200100000025UL, 0x0010003540007c00UL, 0x0010002144007c00UL, 0x600020015c002001UL,
  0x1c00200118002001UL, 0x28007fe434002001UL, 0x0000000000000064UL, 0x0000000010077c00UL,
  0x00000000100f0043UL, 0x1012006300000000UL, 0x0000000000000000UL, 0x101e7c0000000000UL,
  0x10207c0000000000UL, 0x28007c0000000000UL, 0x2800042400000002UL, 0x0000000000000064UL,
  0x4000000028007c00UL, 0x0000006428007bc4UL, 0x008000a100000000UL, 0x0000000240007c00UL,
  0x0000006440000424UL, 0x40007c0000000000UL, 0x40007bc440000000UL, 0x0000000000000064UL,
  0x44007c0000800161UL, 0x4400042400000002UL, 0x0000000000000064UL, 0x4000000044007c00UL,
  0x0000006444007bc4UL, 0x0080018100000000UL, 0x080000025c007c00UL, 0x000000645c000424UL,
  0x5c007c0000000000UL, 0x5c007bc448000000UL, 0x0000000000000064UL, 0x60007c0000800241UL,
  0x6000042408000002UL, 0x0000000000000064UL, 0x4800000060007c00UL, 0x0000006460007bc4UL,
  0x0080026100000000UL, 0x0000000218007c00UL, 0x0000006418000424UL, 0x18007c0000000000UL,
  0x18007bc440000000UL, 0x0000000000000064UL, 0x1c007c0000800021UL, 0x1c00042400000002UL,
  0x0000000000000064UL, 0x400000001c007c00UL, 0x000000641c007bc4UL, 0x0080004100000000UL,
  0x0000000234007c00UL, 0x0000006434000424UL, 0x34007c0000000000UL, 0x34007bc440000000UL,
  0x0000000000000064UL, 0x000000bd00800101UL, 0x48007c00008021a1UL, 0x480200e320100034UL,
  0x0000220004040303UL, 0x00d0034010634202UL, 0x00cf0000033f0000UL, 0x480a7c0000000001UL,
  0x480d7c0001000400UL, 0x0080228100000000UL, 0x0800000064000042UL, 0x64020123156000fcUL,
  0x0000000000090000UL, 0x0000a8ff00000003UL, 0x000000000002a3ffUL, 0x07c403fd00000000UL,
  0x640c004300000001UL, 0x2042204200000000UL, 0x00000001640b7c00UL, 0xfe51424765000403UL,
  0xfe9531e600008d22UL, 0xff833ae700001d15UL, 0xff021d7a0000b0bcUL, 0xff074c530000bd85UL,
  0xff253feb000043f4UL, 0xfee748b50000afb9UL, 0xff8a731800001dcbUL, 0xffcb2d07000047b6UL,
  0xfe8a3e3f0000ff37UL, 0xfdfb2ec50000880eUL, 0xfdf341b80000113fUL, 0xfe02480900009d16UL,
  0xfeb167340000d059UL, 0xfe310ccf0000c90aUL, 0xfef52fa30000a1ecUL, 0x008022a10000ade4UL,
  0x0800000068000042UL, 0x68027c0015000000UL, 0x6807004300070000UL, 0x0000002000004000UL,
  0x00000000680c0043UL, 0x0080210110411041UL, 0x0088020034007c00UL, 0x3429a40034020123UL,
  0x0010000200d000d0UL, 0x0000000000000d00UL, 0x0000000400000001UL, 0x0010000000000024UL,
  0x00000006340c0042UL, 0x340d004300000007UL, 0x3434343f00000004UL, 0x0000000034110043UL,
  0x0080200100000000UL, 0x0008018414007c00UL, 0x704825b014020043UL, 0x140500c300000240UL,
  0x0000000000000000UL, 0x0000000000000000UL, 0x0010000000000024UL, 0x00000006140c0042UL,
  0x140d004300000007UL, 0x7048282f00000001UL, 0x0000000014110043UL, 0x0080204100000008UL,
  0x000800081c007c00UL, 0x342700001c020123UL, 0x0010000400680068UL, 0x0000000400000680UL,
  0x0002a40000000004UL, 0x0010000000000024UL, 0x000000061c0c0042UL, 0x1c0d004300000007UL,
  0x3429a43f00000004UL, 0x000000001c110043UL, 0x10007c0000000000UL, 0x1000042400000002UL,
  0x0000000000000064UL, 0x4000000010007c00UL, 0x0000006410007bc4UL, 0x10007c0000000000UL,
  0x10047c0000000001UL, 0x101500430000002bUL, 0x0000000100000011UL, 0x0000001b10227c00UL,
  0x0000002910247c00UL, 0x48007c001c002001UL, 0x6400200120100035UL, 0x1400200168002001UL,
  0x1c007fe434002001UL, 0x0000000000000064UL, 0x0000000010047c00UL, 0x0000000010150043UL,
  0x10227c0000000000UL, 0x10247c0000000000UL, 0x1c007c0000000000UL, 0x1c00042400000002UL,
  0x0000000000000064UL, 0x400000001c007c00UL, 0x000000641c007bc4UL, 0x0080004100000000UL,
  0x0000000248007c00UL, 0x0000006448000424UL, 0x48007c0000000000UL, 0x48007bc440000000UL,
  0x0000000000000064UL, 0x64007c00008001a1UL, 0x6400042408000002UL, 0x0000000000000064UL,
  0x4800000064007c00UL, 0x0000006464007bc4UL, 0x0080028100000000UL, 0x0800000268007c00UL,
  0x0000006468000424UL, 0x68007c0000000000UL, 0x68007bc448000000UL, 0x0000000000000064UL,
  0x14007c00008002a1UL, 0x1400042400000002UL, 0x0000000000000064UL, 0x4000000014007c00UL,
  0x0000006414007bc4UL, 0x0080000100000000UL, 0x0000000234007c00UL, 0x0000006434000424UL,
  0x34007c0000000000UL, 0x34007bc440000000UL, 0x0000000000000064UL, 0x000000dd00800101UL,
  0x3c007c0000802141UL, 0x3c0200e300100034UL, 0x0000110010100101UL, 0x0068068010634303UL,
  0x00670000067f0000UL, 0x3c0a7c0000000001UL, 0x3c0d7c0000000000UL, 0x0080224100000000UL,
  0x080000005c000042UL, 0x5c020123156000fcUL, 0x0000000000088000UL, 0x0002a3ff0000000fUL,
  0x00000000000547ffUL, 0x078403f100000000UL, 0x5c0c004300000001UL, 0x2042204200000000UL,
  0x000000015c0b7c00UL, 0xfee5273e5d000803UL, 0xffad1fa4000084f7UL, 0xff2924ba0000b17aUL,
  0xfe392e860000c41bUL, 0x000432cb000010bdUL, 0x0017170600008803UL, 0xff8e139a00009345UL,
  0xfecc168a00008dbbUL, 0xfead25d800005550UL, 0xfe91434200004fe4UL, 0xffab38fc0000afdbUL,
  0xfe8c1db30000658eUL, 0xfdd026a40000e895UL, 0xff4b171500002a79UL, 0xfe5e1f480000626eUL,
  0xfee21a1700004862UL, 0xfe861f420000d085UL, 0xffd525c7000061a0UL, 0x007c30840000a515UL,
  0xfee844510000d41dUL, 0x002e4d75000050f3UL, 0xffd255240000a603UL, 0xfdcc2ba60000c616UL,
  0xffdb17520000a2cfUL, 0x006b19240000ae0fUL, 0xfe3723150000b614UL, 0xfea024090000120dUL,
  0xfe90265300000e98UL, 0xfef51bf2000064c7UL, 0xff5e2d410000ea82UL, 0xfee01e0100006605UL,
  0xff961fcb00002a62UL, 0x008022610000f8ccUL, 0x0800000060000042UL, 0x60027c0015000000UL,
  0x6007004300070000UL, 0x0000002000004000UL, 0x00000000600c0043UL, 0x0080202110411041UL,
  0x0008010018007c00UL, 0x3427000018020043UL, 0x180500c30002a400UL, 0x0002a40000000000UL,
  0x0000000000000001UL, 0x0010000000000024UL, 0x00000006180c0042UL, 0x180d004300000007UL,
  0x3429a43f00000002UL, 0x0000000018110043UL, 0x008020c100000000UL, 0x000801842c007c00UL,
  0x704830902c020043UL, 0x2c0500c300000200UL, 0x0000000000000000UL, 0x0000000000000000UL,
  0x0010000000000024UL, 0x000000062c0c0042UL, 0x2c0d004300000007UL, 0x704832cf00000001UL,
  0x000000002c110043UL, 0x008020e100000008UL, 0x0008010830007c00UL, 0x342e000030020043UL,
  0x300500c30002a400UL, 0x0002a40000000000UL, 0x0000000000000000UL, 0x0010000000000024UL,
  0x00000006300c0042UL, 0x300d004300000007UL, 0x3433483f00000002UL, 0x0000000030110043UL,
  0x0080204100000000UL, 0x000800081c007c00UL, 0x342000001c020123UL, 0x0020001000680068UL,
  0x0000001000000d00UL, 0x0005480000000002UL, 0x0010000000000024UL, 0x000000061c0c0042UL,
  0x1c0d004300000007UL, 0x3425483f00000002UL, 0x000000001c110043UL, 0x10007c0000000000UL,
  0x1000042400000002UL, 0x0000000000000064UL, 0x4000000010007c00UL, 0x0000006410007bc4UL,
  0x10007c0000000000UL, 0x10047c0000000001UL, 0x10097c0000000027UL, 0x100c004300000025UL,
  0x0000000d00000003UL, 0x00000015101e7c00UL, 0x0000002510207c00UL, 0x300020011c002001UL,
  0x001000353c007c00UL, 0x600020015c002001UL, 0x2c00200118002001UL, 0x000000641c007fe4UL,
  0x30007fe400000000UL, 0x0000000000000064UL, 0x0000000010047c00UL, 0x0000000010097c00UL,
  0x00000000100c0043UL, 0x101e7c0000000000UL, 0x10207c0000000000UL, 0x1c007c0000000000UL,
  0x1c00042400000002UL, 0x0000000000000064UL, 0x400000001c007c00UL, 0x000000641c007bc4UL,
  0x0080004100000000UL, 0x0000000230007c00UL, 0x0000006430000424UL, 0x30007c0000000000UL,
  0x30007bc440000000UL, 0x0000000000000064UL, 0x3c007c00008000e1UL, 0x3c00042400000002UL,
  0x0000000000000064UL, 0x400000003c007c00UL, 0x000000643c007bc4UL, 0x0080014100000000UL,
  0x080000025c007c00UL, 0x000000645c000424UL, 0x5c007c0000000000UL, 0x5c007bc448000000UL,
  0x0000000000000064UL, 0x60007c0000800241UL, 0x6000042408000002UL, 0x0000000000000064UL,
  0x4800000060007c00UL, 0x0000006460007bc4UL, 0x0080026100000000UL, 0x0000000218007c00UL,
  0x0000006418000424UL, 0x18007c0000000000UL, 0x18007bc440000000UL, 0x0000000000000064UL,
  0x2c007c0000800021UL, 0x2c00042400000002UL, 0x0000000000000064UL, 0x400000002c007c00UL,
  0x000000642c007bc4UL, 0x008000c100000000UL, 0x00802161000000fdUL, 0x10d0003440007c00UL,
  0x10200101400200e3UL, 0x10e3430300001100UL, 0x0cff000000680d00UL, 0x0000000100670000UL,
  0x00000000400a7c00UL, 0x00000000400d7c00UL, 0x6400004200802281UL, 0x356000fc08000000UL,
  0x0009800064020123UL, 0x0000000f00000000UL, 0x0002a3ff0002a3ffUL, 0x0000000000000000UL,
  0x0000000107c403f1UL, 0x00000000640c0063UL, 0xff80ffe220422042UL, 0x00000001640b7c00UL,
  0xfc62209d65000403UL, 0xfd3a29ba0000f8c7UL, 0xfc8d4bf10000f532UL, 0xfc6630b10000d5fbUL,
  0xfc6b25d80000da97UL, 0xfc4d2f8c00009412UL, 0xfcbe238e0000b449UL, 0xfcf3220a00008fd4UL,
  0xfbd71fef0000bfbdUL, 0xfd7b38210000120eUL, 0xfc6642080000442dUL, 0xfbf123f30000a0bbUL,
  0xfc9f3cd00000b64dUL, 0xfc5e31f6000092b8UL, 0xfbf420400000f2ceUL, 0xfbcd2f7d0000cda9UL,
  0x008022a10000e9e0UL, 0x0800000068000042UL, 0x68027c0015000000UL, 0x6807004300070000UL,
  0x0000002000004000UL, 0x00000000680c0043UL, 0x0080206110411041UL, 0x0888030420007c00UL,
  0x3420000020020043UL, 0x200500c30001c2abUL, 0x0000000000000000UL, 0x0005480000000001UL,
  0x0010000000000024UL, 0x00000006200c0042UL, 0x200d004300000007UL, 0x3425483f00000001UL,
  0x0000000020110043UL, 0x008020c100000000UL, 0x088801842c007c00UL, 0x70482c702c020043UL,
  0x2c0500c3000000abUL, 0x0000000000000000UL, 0x0000000000000000UL, 0x0010000000000024UL,
  0x000000062c0c0042UL, 0x2c0d004300000007UL, 0x70482eb700000001UL, 0x000000002c110043UL,
  0x0080212100000008UL, 0x0008010038007c00UL, 0x342e000038020043UL, 0x380500c30002a400UL,
  0x0002a40000000000UL, 0x0000000000000000UL, 0x0010000000000024UL, 0x00000006380c0042UL,
  0x380d004300000007UL, 0x3433483f00000002UL, 0x0000000038110043UL, 0x008020a100000000UL,
  0x0008010c28007c00UL, 0x3429a40028020043UL, 0x280500c30002a400UL, 0x0002a40000000000UL,
  0x0000000000000000UL, 0x0010000000000024UL, 0x00000006280c0042UL, 0x280d004300000007UL,
  0x342c483f00000001UL, 0x0000000028110043UL, 0x0080208100000000UL, 0x0008000824007c00UL,
  0x3435000024020123UL, 0x0020001000680068UL, 0x0000001000000d00UL, 0x0005480000000002UL,
  0x0010000000000024UL, 0x00000006240c0042UL, 0x240d004300000007UL, 0x343a483f00000002UL,
  0x0000000024110043UL, 0x10007c0000000000UL, 0x1000042400000002UL, 0x0000000000000064UL,
  0x4000000010007c00UL, 0x0000006410007bc4UL, 0x10007c0000000000UL, 0x1006004300000001UL,
  0x000000290000002bUL, 0x00000007100f0043UL, 0x10227c000000000dUL, 0x10247c0000000017UL,
  0x2400200100000013UL, 0x40007c0028002001UL, 0x6400200110d00035UL, 0x2000200168002001UL,
  0x380020012c002001UL, 0x0000006424007fe4UL, 0x28007fe400000000UL, 0x0000000000000064UL,
  0x0000000010060043UL, 0x100f004300000000UL, 0x0000000000000000UL, 0x0000000010227c00UL,
  0x0000000010247c00UL, 0x0000000224007c00UL, 0x0000006424000424UL, 0x24007c0000000000UL,
  0x24007bc440000000UL, 0x0000000000000064UL, 0x28007c0000800081UL, 0x2800042400000002UL,
  0x0000000000000064UL, 0x4000000028007c00UL, 0x0000006428007bc4UL, 0x008000a100000000UL,
  0x0000000240007c00UL, 0x0000006440000424UL, 0x40007c0000000000UL, 0x40007bc440000000UL,
  0x0000000000000064UL, 0x64007c0000800161UL, 0x6400042408000002UL, 0x0000000000000064UL,
  0x4800000064007c00UL, 0x0000006464007bc4UL, 0x0080028100000000UL, 0x0800000268007c00UL,
  0x0000006468000424UL, 0x68007c0000000000UL, 0x68007bc448000000UL, 0x0000000000000064UL,
  0x20007c00008002a1UL, 0x2000042400000002UL, 0x0000000000000064UL, 0x4000000020007c00UL,
  0x0000006420007bc4UL, 0x0080006100000000UL, 0x000000022c007c00UL, 0x000000642c000424UL,
  0x2c007c0000000000UL, 0x2c007bc440000000UL, 0x0000000000000064UL, 0x38007c00008000c1UL,
  0x3800042400000002UL, 0x0000000000000064UL, 0x4000000038007c00UL, 0x0000006438007bc4UL,
  0x0080012100000000UL, 0x008021810000011dUL, 0x10d0003444007c00UL, 0x10200101440200e3UL,
  0x10e3430300001100UL, 0x0cff000000680d00UL, 0x0000000100670000UL, 0x00000000440a7c00UL,
  0x00000000440d7c00UL, 0x5c00004200802241UL, 0x156000fc08000000UL, 0x000900005c020123UL,
  0x0000000f00000000UL, 0x0002a3ff0002a3ffUL, 0x0000000000000000UL, 0x0000000107c403f1UL,
  0x000000005c0c0043UL, 0x5c0b7c0020422042UL, 0x5d00040300000001UL, 0x0000e553fe271932UL,
  0x00005a50fe4c2030UL, 0x000024f8fee020b9UL, 0x00007983fed416f0UL, 0x0000b2ebfd4a62c7UL,
  0x0000524cfeb7131bUL, 0x0000548ffe443d9fUL, 0x00000aeefe7913d9UL, 0x000051ccfed61449UL,
  0x0000e538fe862715UL, 0x00007737fee622ffUL, 0x0000a074fe5b229eUL, 0x0000c018fef82801UL,
  0x00002177feb91430UL, 0x0000b675feba2ff6UL, 0x0000aeafff26160aUL, 0x6000004200802261UL,
  0x1500000008000000UL, 0x0007000060027c00UL, 0x0000400060070043UL, 0x600c004300000020UL,
  0x1041104100000000UL, 0x48007c00008021a1UL, 0x480200e300100034UL, 0x0000110010100101UL,
  0x0068068010634202UL, 0x00670000067f0000UL, 0x480a7c0000000001UL, 0x480d7c0000000000UL,
  0x0080228100000000UL, 0x0800000064000042UL, 0x64020123156000fcUL, 0x0000000000090000UL,
  0x0002a3ff0000000fUL, 0x000000000002a3ffUL, 0x07c403f100000000UL, 0x640c004300000001UL,
  0x2042204200000000UL, 0x00000001640b7c00UL, 0xfe1b0b0565000403UL, 0xfd8126df0000036fUL,
  0xfe580bcf0000d1b6UL, 0xfebd1a810000fdc5UL, 0xfdf01301000004aeUL, 0xfe5b15dd00009412UL,
  0xfcf442970000e560UL, 0xfe530c170000138fUL, 0xfea80a74000069b6UL, 0xfe9c13770000cbcbUL,
  0xfe03182a000002ecUL, 0xfc9715260000d8c0UL, 0xfe40192c0000a28fUL, 0xfe7f073c00009b1eUL,
  0xfe15110a00008c7dUL, 0xfeb82a0d0000e98aUL, 0x008022a100002442UL, 0x0800000068000042UL,
  0x68027c0015000000UL, 0x6807004300070000UL, 0x0000002000004000UL, 0x00000000680c0043UL,
  0x008020e110411041UL, 0x0888030430007c00UL, 0x3435000030020043UL, 0x300500c30001c2abUL,
  0x0000000000000000UL, 0x0005480000000001UL, 0x0010000000000024UL, 0x00000006300c0042UL,
  0x300d004300000007UL, 0x343a483f00000001UL, 0x0000000030110043UL, 0x0080204100000000UL,
  0x088801841c007c00UL, 0x70482e801c020043UL, 0x1c0500c3000000abUL, 0x0000000000000000UL,
  0x0000000000000000UL, 0x0010000000000024UL, 0x000000061c0c0042UL, 0x1c0d004300000007UL,
  0x704830c700000001UL, 0x000000001c110043UL, 0x008020a100000008UL, 0x0008018428007c00UL,
  0x704833e028020043UL, 0x280500c300000100UL, 0x0000000000000000UL, 0x0000000000000000UL,
  0x0010000000000024UL, 0x00000006280c0042UL, 0x280d004300000007UL, 0x7048351f00000001UL,
  0x0000000028110043UL, 0x0080208100000008UL, 0x0008010c24007c00UL, 0x342e000024020043UL,
  0x240500c30002a400UL, 0x0002a40000000000UL, 0x0000000000000000UL, 0x0010000000000024UL,
  0x00000006240c0042UL, 0x240d004300000007UL, 0x3430a43f00000001UL, 0x0000000024110043UL,
  0x0080200100000000UL, 0x0008000814007c00UL, 0x3430a40014020123UL, 0xa900000400680004UL,
  0x000001a000000004UL, 0x0002a40000000068UL, 0x0010000000000024UL, 0x00000006140c0042UL,
  0x140d004300000007UL, 0x3433483f00000068UL, 0x0000000014110043UL, 0x10007c0000000000UL,
  0x1000042400000002UL, 0x0000000000000064UL, 0x4000000010007c00UL, 0x0000006410007bc4UL,
  0x10007c0000000000UL, 0x10027c0000000001UL, 0x10067c000000002bUL, 0x1012004300000025UL,
  0x000000050000000fUL, 0xff26012710150043UL, 0x101e7c000000000bUL, 0x10207c0000000019UL,
  0x10227c0000000025UL, 0x10247c000000001bUL, 0x1400200100000029UL, 0x44007c0024002001UL,
  0x48007c0010d00035UL, 0x5c00200100100035UL, 0x6400200160002001UL, 0x1c00200168002001UL,
  0x3000200128002001UL, 0x0000006414007fe4UL, 0x24007fe400000000UL, 0x0000000000000064UL,
  0x0000000010027c00UL, 0x0000000010067c00UL, 0x0000000010120043UL, 0x1015004300000000UL,
  0x0000000000000000UL, 0x00000000101e7c00UL, 0x0000000010207c00UL, 0x0000000010227c00UL,
  0x0000000010247c00UL, 0x0000000214007c00UL, 0x0000006414000424UL, 0x14007c0000000000UL,
  0x14007bc440000000UL, 0x0000000000000064UL, 0x24007c0000800001UL, 0x2400042400000002UL,
  0x0000000000000064UL, 0x4000000024007c00UL, 0x0000006424007bc4UL, 0x0080008100000000UL,
  0x0000000244007c00UL, 0x0000006444000424UL, 0x44007c0000000000UL, 0x44007bc440000000UL,
  0x0000000000000064UL, 0x48007c0000800181UL, 0x4800042400000002UL, 0x0000000000000064UL,
  0x4000000048007c00UL, 0x0000006448007bc4UL, 0x008001a100000000UL, 0x080000025c007c00UL,
  0x000000645c000424UL, 0x5c007c0000000000UL, 0x5c007bc448000000UL, 0x0000000000000064UL,
  0x60007c0000800241UL, 0x6000042408000002UL, 0x0000000000000064UL, 0x4800000060007c00UL,
  0x0000006460007bc4UL, 0x0080026100000000UL, 0x0800000264007c00UL, 0x0000006464000424UL,
  0x64007c0000000000UL, 0x64007bc448000000UL, 0x0000000000000064UL, 0x68007c0000800281UL,
  0x6800042408000002UL, 0x0000000000000064UL, 0x4800000068007c00UL, 0x0000006468007bc4UL,
  0x008002a100000000UL, 0x000000021c007c00UL, 0x000000641c000424UL, 0x1c007c0000000000UL,
  0x1c007bc440000000UL, 0x0000000000000064UL, 0x28007c0000800041UL, 0x2800042400000002UL,
  0x0000000000000064UL, 0x4000000028007c00UL, 0x0000006428007bc4UL, 0x008000a100000000UL,
  0x0000000230007c00UL, 0x0000006430000424UL, 0x30007c0000000000UL, 0x30007bc440000000UL,
  0x0000000000000064UL, 0x0000013d008000e1UL, 0x3c007c0000802141UL, 0x3c0200e300100034UL,
  0x0000115504040303UL, 0x006801a010634202UL, 0x00670000019f0000UL, 0x3c0a7c0000000001UL,
  0x3c0d7c0000000000UL, 0x0080224100000000UL, 0x080000005c000042UL, 0x5c020123156000fcUL,
  0x0000000000090000UL, 0x0000a8ff00000003UL, 0x000000000002a3ffUL, 0x07c403fd00000000UL,
  0x5c0c004300000001UL, 0x2042204200000000UL, 0x000000015c0b7c00UL, 0xfd172dd35d000403UL,
  0xfde00c330000c0baUL, 0xfe3038830000a7a7UL, 0xfe392d25000065f8UL, 0xfdd222a800000bf0UL,
  0xfde34257000023a6UL, 0xfe5b07e200005d94UL, 0xfe2f42c100008e42UL, 0xfec94a5600001160UL,
  0xfe2637b60000aa50UL, 0xff1c21ee0000d8a6UL, 0xfce8242c0000494eUL, 0xfddf2a6500005cbbUL,
  0xfe653af400003617UL, 0xfe0e33580000ab14UL, 0xfe2a41810000d76fUL, 0x0080226100008a36UL,
  0x0800000060000042UL, 0x60027c0015000000UL, 0x6007004300070000UL, 0x0000002000004000UL,
  0x00000000600c0043UL, 0x008020e110411041UL, 0x0008010030007c00UL, 0x3430a40030020043UL,
  0x300500c30000a900UL, 0x0000000000000000UL, 0x0000a90000000001UL, 0x0010000000000024UL,
  0x00000006300c0042UL, 0x300d004300000007UL, 0x3433483f00000004UL, 0x0000000030110043UL,
  0x0080208100000000UL, 0x0008018424007c00UL, 0x704827f024020043UL, 0x240500c300000240UL,
  0x0000000000000000UL, 0x0000000000000000UL, 0x0010000000000024UL, 0x00000006240c0042UL,
  0x240d004300000007UL, 0x70482a6f00000001UL, 0x0000000024110043UL, 0x0080200100000008UL,
  0x0008000814007c00UL, 0x3422a40014020123UL, 0x0010000400680068UL, 0x0000000400000680UL,
  0x0002a40000000004UL, 0x0010000000000024UL, 0x00000006140c0042UL, 0x140d004300000007UL,
  0x3425483f00000004UL, 0x0000000014110043UL, 0x10007c0000000000UL, 0x1000042400000002UL,
  0x0000000000000064UL, 0x4000000010007c00UL, 0x0000006410007bc4UL, 0x10007c0000000000UL,
  0x10027c0000000001UL, 0x100c004300000027UL, 0x000000090000000fUL, 0x00000015101e7c00UL,
  0x0000002510207c00UL, 0x3c007c0014002001UL, 0x5c00200100100035UL, 0x2400200160002001UL,
  0x14007fe430002001UL, 0x0000000000000064UL, 0x0000000010027c00UL, 0x00000000100c0043UL,
  0x101e7c0000000000UL, 0x10207c0000000000UL, 0x14007c0000000000UL, 0x1400042400000002UL,
  0x0000000000000064UL, 0x4000000014007c00UL, 0x0000006414007bc4UL, 0x0080000100000000UL,
  0x000000023c007c00UL, 0x000000643c000424UL, 0x3c007c0000000000UL, 0x3c007bc440000000UL,
  0x0000000000000064UL, 0x5c007c0000800141UL, 0x5c00042408000002UL, 0x0000000000000064UL,
  0x480000005c007c00UL, 0x000000645c007bc4UL, 0x0080024100000000UL, 0x0800000260007c00UL,
  0x0000006460000424UL, 0x60007c0000000000UL, 0x60007bc448000000UL, 0x0000000000000064UL,
  0x24007c0000800261UL, 0x2400042400000002UL, 0x0000000000000064UL, 0x4000000024007c00UL,
  0x0000006424007bc4UL, 0x0080008100000000UL, 0x0000000230007c00UL, 0x0000006430000424UL,
  0x30007c0000000000UL, 0x30007bc440000000UL, 0x0000000000000064UL, 0x0000015d008000e1UL,
  0x40007c0000802161UL, 0x400200e300100034UL, 0x0000110010100101UL, 0x0068068010634202UL,
  0x00670000067f0000UL, 0x400a7c0000000001UL, 0x400d7c0000000000UL, 0x0080228100000000UL,
  0x0800000064000042UL, 0x64020123356000fcUL, 0x00000000000a8000UL, 0x0002a3ff0000000fUL,
  0x000000000002a3ffUL, 0x07c403f100000000UL, 0x640c006300000001UL, 0x2042204200000000UL,
  0x640b7c00ff800005UL, 0x6500040300000001UL, 0x00006e79f1542eb4UL, 0x0000f27fed356799UL,
  0x0000164ef26836ccUL, 0x0000af5bf041403eUL, 0x0000584bf38a3102UL, 0x0000d7d4f33d5a1dUL,
  0x0000ebb3f0c170e4UL, 0x0000a8c2ef5e4d6bUL, 0x0000a4d7f6b66c48UL, 0x000073faf40a4849UL,
  0x000028c3f5527afeUL, 0x000030aef1082af8UL, 0x0000336af1bd5387UL, 0x00009864f1ba53eeUL,
  0x0000701eed63601dUL, 0x0000de86f1b545daUL, 0x68000042008022a1UL, 0x0500016008000000UL,
  0x0007180168027c00UL, 0x428c428c68070043UL, 0x680c004300004000UL, 0x1041104100000000UL,
  0x5c00004200802241UL, 0x1500000008000000UL, 0x000700005c027c00UL, 0x000040005c070043UL,
  0x5c0c004300000020UL, 0x1041104100000000UL, 0x44007c0000802181UL, 0x440200e300100034UL,
  0x0000110010100101UL, 0x0068068010634303UL, 0x00670000067f0000UL, 0x440a7c0000000001UL,
  0x440d7c0000000000UL, 0x0080226100000000UL, 0x0800000060000042UL, 0x60020123156000fcUL,
  0x0000000000090000UL, 0x0002a3ff0000000fUL, 0x000000000002a3ffUL, 0x07c403f100000000UL,
  0x600c004300000001UL, 0x2042204200000000UL, 0x00000001600b7c00UL, 0xfe7f57cf61000403UL,
  0xfea6172e0000b9f3UL, 0xfdb52e380000eb60UL, 0xff1a0b960000ee43UL, 0xfbd744410000b6e3UL,
  0xffa954280000d553UL, 0xfeb00e350000c9daUL, 0xfe0f4a0f00007e8cUL, 0xfdbe4d180000e923UL,
  0xfe8215170000fdc2UL, 0xfeca1b7c000057b5UL, 0xfe394bd2000023b1UL, 0xfe62583900004f99UL,
  0xffbd691c000063c1UL, 0xffd66f9800002bd4UL, 0xfde1530c00004ccaUL, 0x008020a10000e989UL,
  0x0008010428007c00UL, 0x3422a40028020043UL, 0x280500c30002a400UL, 0x0002a40000000000UL,
  0x0000000000000001UL, 0x0010000000000024UL, 0x00000006280c0042UL, 0x280d004300000007UL,
  0x3425483f00000001UL, 0x0000000028110043UL, 0x0080208100000000UL, 0x0008018424007c00UL,
  0x704834e024020043UL, 0x240500c300000100UL, 0x0000000000000000UL, 0x0000000000000000UL,
  0x0010000000000024UL, 0x00000006240c0042UL, 0x240d004300000007UL, 0x7048361f00000001UL,
  0x0000000024110043UL, 0x0080212100000008UL, 0x0008010438007c00UL, 0x342e000038020043UL,
  0x380500c30002a400UL, 0x0002a40000000000UL, 0x0000000000000000UL, 0x0010000000000024UL,
  0x00000006380c0042UL, 0x380d004300000007UL, 0x3430a43f00000001UL, 0x0000000038110043UL,
  0x0080210100000000UL, 0x0008018434007c00UL, 0x704835e034020043UL, 0x340500c300000100UL,
  0x0000000000000000UL, 0x0000000000000000UL, 0x0010000000000024UL, 0x00000006340c0042UL,
  0x340d004300000007UL, 0x7048371f00000001UL, 0x0000000034110043UL, 0x0080204100000008UL,
  0x0008010c1c007c00UL, 0x342000001c020043UL, 0x1c0500c30002a400UL, 0x0002a40000000000UL,
  0x0000000000000000UL, 0x0010000000000024UL, 0x000000061c0c0042UL, 0x1c0d004300000007UL,
  0x3422a43f00000001UL, 0x000000001c110043UL, 0x0080200100000000UL, 0x0008010c14007c00UL,
  0x3430a40014020043UL, 0x140500c30002a400UL, 0x0002a40000000000UL, 0x0000000000000000UL,
  0x0010000000000024UL, 0x00000006140c0042UL, 0x140d004300000007UL, 0x3433483f00000001UL,
  0x0000000014110043UL, 0x10007c0000000000UL, 0x1000042400000002UL, 0x0000000000000064UL,
  0x4000000010007c00UL, 0x0000006410007bc4UL, 0x10007c0000000000UL, 0x10027c0000000001UL,
  0x10047c0000000027UL, 0x100f00430000002bUL, 0x000000090000000bUL, 0xff24012510120043UL,
  0x101e7c0000000011UL, 0x10207c000000002bUL, 0x10227c0000000019UL, 0x1024004300000017UL,
  0x0000002900000013UL, 0x1c00200114002001UL, 0x0010003540007c00UL, 0x0010003544007c00UL,
  0x600020015c002001UL, 0x6800200164002001UL, 0x2800200124002001UL, 0x3800200134002001UL,
  0x0000006414007fe4UL, 0x1c007fe400000000UL, 0x0000000000000064UL, 0x0000000010027c00UL,
  0x0000000010047c00UL, 0x00000000100f0043UL, 0x1012004300000000UL, 0x0000000000000000UL,
  0x00000000101e7c00UL, 0x0000000010207c00UL, 0x0000000010227c00UL, 0x0000000010240043UL,
  0x14007c0000000000UL, 0x1400042400000002UL, 0x0000000000000064UL, 0x4000000014007c00UL,
  0x0000006414007bc4UL, 0x0080000100000000UL, 0x000000021c007c00UL, 0x000000641c000424UL,
  0x1c007c0000000000UL, 0x1c007bc440000000UL, 0x0000000000000064UL, 0x40007c0000800041UL,
  0x4000042400000002UL, 0x0000000000000064UL, 0x4000000040007c00UL, 0x0000006440007bc4UL,
  0x0080016100000000UL, 0x0000000244007c00UL, 0x0000006444000424UL, 0x44007c0000000000UL,
  0x44007bc440000000UL, 0x0000000000000064UL, 0x5c007c0000800181UL, 0x5c00042408000002UL,
  0x0000000000000064UL, 0x480000005c007c00UL, 0x000000645c007bc4UL, 0x0080024100000000UL,
  0x0800000260007c00UL, 0x0000006460000424UL, 0x60007c0000000000UL, 0x60007bc448000000UL,
  0x0000000000000064UL, 0x64007c0000800261UL, 0x6400042408000002UL, 0x0000000000000064UL,
  0x4800000064007c00UL, 0x0000006464007bc4UL, 0x0080028100000000UL, 0x0800000268007c00UL,
  0x0000006468000424UL, 0x68007c0000000000UL, 0x68007bc448000000UL, 0x0000000000000064UL,
  0x24007c00008002a1UL, 0x2400042400000002UL, 0x0000000000000064UL, 0x4000000024007c00UL,
  0x0000006424007bc4UL, 0x0080008100000000UL, 0x0000000228007c00UL, 0x0000006428000424UL,
  0x28007c0000000000UL, 0x28007bc440000000UL, 0x0000000000000064UL, 0x34007c00008000a1UL,
  0x3400042400000002UL, 0x0000000000000064UL, 0x4000000034007c00UL, 0x0000006434007bc4UL,
  0x0080010100000000UL, 0x0000000238007c00UL, 0x0000006438000424UL, 0x38007c0000000000UL,
  0x38007bc440000000UL, 0x0000000000000064UL, 0x0000017d00800121UL, 0x5c00004200802241UL,
  0x1500000008000000UL, 0x000700005c027c00UL, 0x000040005c070043UL, 0x5c0c004300000020UL,
  0x1041104100000000UL, 0x18007c0000802021UL, 0x1802004300080104UL, 0x0002a4003430a400UL,
  0x00000000180500c3UL, 0x000000000002a400UL, 0x0000002400000000UL, 0x180c004200100000UL,
  0x0000000700000006UL, 0x00000001180d0043UL, 0x181100433433483fUL, 0x0000000000000000UL,
  0x2c007c00008020c1UL, 0x2c02012300080008UL, 0x00680004342e0000UL, 0x00000004a9000004UL,
  0x00000068000001a0UL, 0x000000240002a400UL, 0x2c0c004200100000UL, 0x0000000700000006UL,
  0x000000682c0d0043UL, 0x2c1100433430a43fUL, 0x0000000000000000UL, 0x0000000210007c00UL,
  0x0000006410000424UL, 0x10007c0000000000UL, 0x10007bc440000000UL, 0x0000000000000064UL,
  0x0000000110007c00UL, 0x0000002510087c00UL, 0x00000003101e7c00UL, 0x5c0020012c002001UL,
  0x2c007fe418002001UL, 0x0000000000000064UL, 0x0000000010087c00UL, 0x00000000101e7c00UL,
  0x000000022c007c00UL, 0x000000642c000424UL, 0x2c007c0000000000UL, 0x2c007bc440000000UL,
  0x0000000000000064UL, 0x5c007c00008000c1UL, 0x5c00042408000002UL, 0x0000000000000064UL,
  0x480000005c007c00UL, 0x000000645c007bc4UL, 0x0080024100000000UL, 0x0000000218007c00UL,
  0x0000006418000424UL, 0x18007c0000000000UL, 0x18007bc440000000UL, 0x0000000000000064UL,
  0x0000019d00800021UL, 0x48007c00008021a1UL, 0x480200e300100034UL, 0x0000115504040303UL,
  0x006801a010634202UL, 0x00670000019f0000UL, 0x480a7c0000000001UL, 0x480d7c0000000000UL,
  0x0080226100000000UL, 0x0800000060000042UL, 0x60020123156000fcUL, 0x0000000000088000UL,
  0x0000a8ff00000003UL, 0x000000000002a3ffUL, 0x07c403fd00000000UL, 0x600c004300000001UL,
  0x2042204200000000UL, 0x00000001600b7c00UL, 0xff830af361000403UL, 0x00062eca0000bae3UL,
  0xff530dbf0000021bUL, 0xff124d7d00009a13UL, 0xfeeb0f520000294bUL, 0xfeb4209e00009440UL,
  0x00fa236100008ab2UL, 0xfefc1db600001f8bUL, 0xff870a0c0000a262UL, 0xff2d1c41000060c9UL,
  0xff0625f10000b0c3UL, 0xfe940b2e0000d142UL, 0xff0d3d300000603bUL, 0xff170ea30000be4dUL,
  0xffcf0f23000094d9UL, 0xff2c0882000016b6UL, 0x0080228100001a71UL, 0x0800000064000042UL,
  0x64027c0015000000UL, 0x6407004300070000UL, 0x0000002000004000UL, 0x00000000640c0043UL,
  0x008020e110411041UL, 0x0008010030007c00UL, 0x342e000030020043UL, 0x300500c30000a900UL,
  0x0000000000000000UL, 0x0000a90000000001UL, 0x0010000000000024UL, 0x00000006300c0042UL,
  0x300d004300000007UL, 0x3430a43f00000004UL, 0x0000000030110043UL, 0x0080212100000000UL,
  0x0008018438007c00UL, 0x70482a3038020043UL, 0x380500c300000240UL, 0x0000000000000000UL,
  0x0000000000000000UL, 0x0010000000000024UL, 0x00000006380c0042UL, 0x380d004300000007UL,
  0x70482caf00000001UL, 0x0000000038110043UL, 0x0080202100000008UL, 0x0008000818007c00UL,
  0x3430a40018020123UL, 0x0010000400680068UL, 0x0000000400000680UL, 0x0002a40000000004UL,
  0x0010000000000024UL, 0x00000006180c0042UL, 0x180d004300000007UL, 0x3433483f00000004UL,
  0x0000000018110043UL, 0x10007c0000000000UL, 0x1000042400000002UL, 0x0000000000000064UL,
  0x4000000010007c00UL, 0x0000006410007bc4UL, 0x10007c0000000000UL, 0x10037c0000000001UL,
  0x1015004300000029UL, 0x000000130000000fUL, 0x0000001b10207c00UL, 0x0000002710227c00UL,
  0x48007c0018002001UL, 0x6000200100100035UL, 0x3000200164002001UL, 0x18007fe438002001UL,
  0x0000000000000064UL, 0x0000000010037c00UL, 0x0000000010150043UL, 0x10207c0000000000UL,
  0x10227c0000000000UL, 0x18007c0000000000UL, 0x1800042400000002UL, 0x0000000000000064UL,
  0x4000000018007c00UL, 0x0000006418007bc4UL, 0x0080002100000000UL, 0x0000000248007c00UL,
  0x0000006448000424UL, 0x48007c0000000000UL, 0x48007bc440000000UL, 0x0000000000000064UL,
  0x60007c00008001a1UL, 0x6000042408000002UL, 0x0000000000000064UL, 0x4800000060007c00UL,
  0x0000006460007bc4UL, 0x0080026100000000UL, 0x0800000264007c00UL, 0x0000006464000424UL,
  0x64007c0000000000UL, 0x64007bc448000000UL, 0x0000000000000064UL, 0x30007c0000800281UL,
  0x3000042400000002UL, 0x0000000000000064UL, 0x4000000030007c00UL, 0x0000006430007bc4UL,
  0x008000e100000000UL, 0x0000000238007c00UL, 0x0000006438000424UL, 0x38007c0000000000UL,
  0x38007bc440000000UL, 0x0000000000000064UL, 0x000001bd00800121UL, 0x3c007c0000802141UL,
  0x3c0200e300100034UL, 0x0000110010100101UL, 0x0068068010634202UL, 0x00670000067f0000UL,
  0x3c0a7c0000000001UL, 0x3c0d7c0000000000UL, 0x008022a100000000UL, 0x0800000068000042UL,
  0x68020123356000fcUL, 0x00000000000a0000UL, 0x0002a3ff0000000fUL, 0x000000000002a3ffUL,
  0x07c403f100000000UL, 0x680c006300000001UL, 0x2042204200000000UL, 0x680b7c00ff80ffe2UL,
  0x6900040300000001UL, 0x00002373f3f034efUL, 0x0000e58bf66d17feUL, 0x00008f4cf8422510UL,
  0x00004a77f78e1a74UL, 0x00003337fb1d1b09UL, 0x00005814f7441378UL, 0x00003ca7f3f02321UL,
  0x0000307bfae34301UL, 0x0000d707faa21fd9UL, 0x00005debf96d10b3UL, 0x0000e44cf70b1b85UL,
  0x0000d466fb551db8UL, 0x0000f2b6f9d22d28UL, 0x000040c6f8bc1901UL, 0x000095b6f6dc1a46UL,
  0x0000a794fb7e27fcUL, 0x5c00004200802241UL, 0x0500016008000000UL, 0x000718015c027c00UL,
  0x5e835e835c070043UL, 0x5c0c004300004000UL, 0x1041104100000000UL, 0x14007c0000802001UL,
  0x1402004300080104UL, 0x0002a4003430a400UL, 0x00000000140500c3UL, 0x000000010002a400UL,
  0x0000002400000000UL, 0x140c004200100000UL, 0x0000000700000006UL, 0x00000001140d0043UL,
  0x141100433433483fUL, 0x0000000000000000UL, 0x34007c0000802101UL, 0x3402004300080184UL,
  0x00000100704836e0UL, 0x00000000340500c3UL, 0x0000000000000000UL, 0x0000002400000000UL,
  0x340c004200100000UL, 0x0000000700000006UL, 0x00000001340d0043UL, 0x341100437048381fUL,
  0x0000000800000000UL, 0x24007c0000802081UL, 0x2402004300080104UL, 0x0002a40034200000UL,
  0x00000000240500c3UL, 0x000000000002a400UL, 0x0000002400000000UL, 0x240c004200100000UL,
  0x0000000700000006UL, 0x00000001240d0043UL, 0x241100433422a43fUL, 0x0000000000000000UL,
  0x30007c00008020e1UL, 0x300200430008010cUL, 0x0002a40034270000UL, 0x00000000300500c3UL,
  0x000000000002a400UL, 0x0000002400000000UL, 0x300c004200100000UL, 0x0000000700000006UL,
  0x00000001300d0043UL, 0x301100433429a43fUL, 0x0000000000000000UL, 0x0000000210007c00UL,
  0x0000006410000424UL, 0x10007c0000000000UL, 0x10007bc440000000UL, 0x0000000000000064UL,
  0x0000000110007c00UL, 0x0000002510097c00UL, 0x00000001100c0043UL, 0x101e004300000011UL,
  0x0000002b00000009UL, 0x0000001510247c00UL, 0x3c007c0030002001UL, 0x5c00200100100035UL,
  0x1400200168002001UL, 0x3400200124002001UL, 0x0000006430007fe4UL, 0x10097c0000000000UL,
  0x100c004300000000UL, 0x0000000000000000UL, 0x00000000101e0043UL, 0x10247c0000000000UL,
  0x30007c0000000000UL, 0x3000042400000002UL, 0x0000000000000064UL, 0x4000000030007c00UL,
  0x0000006430007bc4UL, 0x008000e100000000UL, 0x000000023c007c00UL, 0x000000643c000424UL,
  0x3c007c0000000000UL, 0x3c007bc440000000UL, 0x0000000000000064UL, 0x5c007c0000800141UL,
  0x5c00042408000002UL, 0x0000000000000064UL, 0x480000005c007c00UL, 0x000000645c007bc4UL,
  0x0080024100000000UL, 0x0800000268007c00UL, 0x0000006468000424UL, 0x68007c0000000000UL,
  0x68007bc448000000UL, 0x0000000000000064UL, 0x14007c00008002a1UL, 0x1400042400000002UL,
  0x0000000000000064UL, 0x4000000014007c00UL, 0x0000006414007bc4UL, 0x0080000100000000UL,
  0x0000000224007c00UL, 0x0000006424000424UL, 0x24007c0000000000UL, 0x24007bc440000000UL,
  0x0000000000000064UL, 0x34007c0000800081UL, 0x3400042400000002UL, 0x0000000000000064UL,
  0x4000000034007c00UL, 0x0000006434007bc4UL, 0x0080010100000000UL, 0x000001fd000001ddUL,
  0x6000004200802261UL, 0x1500000008000000UL, 0x0007000060027c00UL, 0x0000400060070043UL,
  0x600c004300000020UL, 0x1041104100000000UL, 0x1c007c0000802041UL, 0x1c02004300080100UL,
  0x0002a40034270000UL, 0x000000001c0500c3UL, 0x000000000002a400UL, 0x0000002400000000UL,
  0x1c0c004200100000UL, 0x0000000700000006UL, 0x000000021c0d0043UL, 0x1c110043342c483fUL,
  0x0000000000000000UL, 0x30007c00008020e1UL, 0x3002004300080108UL, 0x0002a400342e0000UL,
  0x00000000300500c3UL, 0x000000000002a400UL, 0x0000002400000000UL, 0x300c004200100000UL,
  0x0000000700000006UL, 0x00000002300d0043UL, 0x301100433433483fUL, 0x0000000000000000UL,
  0x0000000210007c00UL, 0x0000006410000424UL, 0x10007c0000000000UL, 0x10007bc440000000UL,
  0x0000000000000064UL, 0x0000000110007c00UL, 0x0000002710097c00UL, 0x0000000510207c00UL,
  0x6000200130002001UL, 0x30007fe41c002001UL, 0x0000000000000064UL, 0x0000000010097c00UL,
  0x0000000010207c00UL, 0x0000000230007c00UL, 0x0000006430000424UL, 0x30007c0000000000UL,
  0x30007bc440000000UL, 0x0000000000000064UL, 0x60007c00008000e1UL, 0x6000042408000002UL,
  0x0000000000000064UL, 0x4800000060007c00UL, 0x0000006460007bc4UL, 0x0080026100000000UL,
  0x000000021c007c00UL, 0x000000641c000424UL, 0x1c007c0000000000UL, 0x1c007bc440000000UL,
  0x0000000000000064UL, 0x0000021d00800041UL, 0x40007c0000802161UL, 0x400200e300100034UL,
  0x0000110010100101UL, 0x0068068010774003UL, 0x00670000067f0000UL, 0x400a7c00000f0020UL,
  0x400d7c0000000000UL, 0x0080218100000000UL, 0x0010002044007c00UL, 0x10100101440200e3UL,
  0x1063430000001100UL, 0x067f000000680680UL, 0x001f102000670000UL, 0x00000000440a7c00UL,
  0x00000000440d7c00UL, 0x6400004200802281UL, 0x156000fc08000000UL, 0x0008800064020123UL,
  0x0000000f00000000UL, 0x000547ff0002a3ffUL, 0x0000000000000000UL, 0x00000001078403f1UL,
  0x00000000640c0043UL, 0x640b7c0020422042UL, 0x6500080300000001UL, 0x00002435ff7d5851UL,
  0x0000306cff031df6UL, 0x00009992ff40070eUL, 0x0000addaff950867UL, 0x0000b1ebfec11650UL,
  0x00008b7efefc1446UL, 0x0000a08ffeea14baUL, 0x00000f7eff300a78UL, 0x0000af15ff7313c6UL,
  0x0000e108ff9905a1UL, 0x000018d4fece14e2UL, 0x00004829ff8508a4UL, 0x0000cb0efec123f0UL,
  0x00009248fef924e1UL, 0x0000963dff400e63UL, 0x0000935eff104408UL, 0x0000122aff9c0d79UL,
  0x00007f9aff061482UL, 0x0000c500ff002979UL, 0x00005741ff4e12d6UL, 0x00000cb0ff720e18UL,
  0x00001d87ff9c0958UL, 0x000016b100193cffUL, 0x000076faff9508feUL, 0x0000a7d8ff620c80UL,
  0x00002bc3ff7d0edaUL, 0x0000b767fee70c88UL, 0x0000b92cff0a0b3cUL, 0x00002b88ff6a0bb3UL,
  0x00007acaff2a1449UL, 0x00006a86fef4107aUL, 0x000089a4fec51b59UL, 0x5c00004200802241UL,
  0x1500000008000000UL, 0x000700005c027c00UL, 0x000040005c070043UL, 0x5c0c004300000020UL,
  0x1041104100000000UL, 0x1c007c0000802041UL, 0x1c02004300080100UL, 0x0002a400342e0000UL,
  0x000000001c0500c3UL, 0x0000000100054800UL, 0x0000002400000000UL, 0x1c0c004200100000UL,
  0x0000000700000006UL, 0x000000021c0d0043UL, 0x1c1100433433483fUL, 0x0000000000000000UL,
  0x24007c0000802081UL, 0x2402004300080184UL, 0x00000400704818b0UL, 0x00000000240500c3UL,
  0x0000000000000000UL, 0x0000002400000000UL, 0x240c004200100000UL, 0x0000000700000006UL,
  0x00000001240d0043UL, 0x2411004370481cefUL, 0x0000000800000000UL, 0x38007c0000802121UL,
  0x3802004300080100UL, 0x0002a4003430a400UL, 0x00000000380500c3UL, 0x0000000100054800UL,
  0x0000002400000000UL, 0x380c004200100000UL, 0x0000000700000006UL, 0x00000002380d0043UL,
  0x381100433433483fUL, 0x0000000000000000UL, 0x28007c00008020a1UL, 0x2802012300080008UL,
  0x0068006834270000UL, 0x00000d0000200010UL, 0x0000000200000010UL, 0x0000002400054800UL,
  0x280c004200100000UL, 0x0000000700000006UL, 0x00000002280d0043UL, 0x28110043342c483fUL,
  0x0000000000000000UL, 0x0000000210007c00UL, 0x0000006410000424UL, 0x10007c0000000000UL,
  0x10007bc440000000UL, 0x0000000000000064UL, 0x0000000110007c00UL, 0x0000002510077c00UL,
  0x00000005100f0043UL, 0x1012006300000009UL, 0x0000000900000013UL, 0x101e7c0000000017UL,
  0x10227c0000000029UL, 0x2800200100000019UL, 0x0010003540007c00UL, 0x0010002144007c00UL,
  0x640020015c002001UL, 0x240020011c002001UL, 0x28007fe438002001UL, 0x0000000000000064UL,
  0x0000000010077c00UL, 0x00000000100f0043UL, 0x1012006300000000UL, 0x0000000000000000UL,
  0x101e7c0000000000UL, 0x10227c0000000000UL, 0x28007c0000000000UL, 0x2800042400000002UL,
  0x0000000000000064UL, 0x4000000028007c00UL, 0x0000006428007bc4UL, 0x008000a100000000UL,
  0x0000000240007c00UL, 0x0000006440000424UL, 0x40007c0000000000UL, 0x40007bc440000000UL,
  0x0000000000000064UL, 0x44007c0000800161UL, 0x4400042400000002UL, 0x0000000000000064UL,
  0x4000000044007c00UL, 0x0000006444007bc4UL, 0x0080018100000000UL, 0x080000025c007c00UL,
  0x000000645c000424UL, 0x5c007c0000000000UL, 0x5c007bc448000000UL, 0x0000000000000064UL,
  0x64007c0000800241UL, 0x6400042408000002UL, 0x0000000000000064UL, 0x4800000064007c00UL,
  0x0000006464007bc4UL, 0x0080028100000000UL, 0x000000021c007c00UL, 0x000000641c000424UL,
  0x1c007c0000000000UL, 0x1c007bc440000000UL, 0x0000000000000064UL, 0x24007c0000800041UL,
  0x2400042400000002UL, 0x0000000000000064UL, 0x4000000024007c00UL, 0x0000006424007bc4UL,
  0x0080008100000000UL, 0x0000000238007c00UL, 0x0000006438000424UL, 0x38007c0000000000UL,
  0x38007bc440000000UL, 0x0000000000000064UL, 0x0000023d00800121UL, 0x48007c00008021a1UL,
  0x480200e320100034UL, 0x0000220004040303UL, 0x006801a010634303UL, 0x00670000019f0000UL,
  0x480a7c0000000001UL, 0x480d7c0001000400UL, 0x008022a100000000UL, 0x0800000068000042UL,
  0x68020123156000fcUL, 0x0000000000090000UL, 0x00002a3f00000003UL, 0x00000000000151ffUL,
  0x078403fd00000000UL, 0x680c004300000001UL, 0x2042204200000000UL, 0x00000001680b7c00UL,
  0xfeed0a4b69000803UL, 0xfdd916e00000864cUL, 0xfd9577ea0000b3daUL, 0xfdb1379600006fe3UL,
  0xfe1f14d60000b8c3UL, 0xfd9e28770000146cUL, 0xff23208f0000c9e5UL, 0x02a528b50000bd9dUL,
  0x01a6223a0000e985UL, 0xfe3f7db900007b19UL, 0xfe0e25520000993dUL, 0xfe03441c00001f6bUL,
  0xfeb917d90000b108UL, 0xfde9193f00006aa8UL, 0xfe103044000024cbUL, 0xfe9205a0000012b4UL,
  0xfdee25c60000a693UL, 0xfe52180700007ef5UL, 0xff0d0e7600003726UL, 0xfdf9290e0000c532UL,
  0xfe1f3a490000f229UL, 0xfdf241850000c2a7UL, 0xfea10b970000b107UL, 0xfdef3766000046b1UL,
  0xfdb739cd00003a8fUL, 0xfde9278d0000aa7bUL, 0xfdec357c000071cdUL, 0xfe083a8700004896UL,
  0xfd3e2d6400000084UL, 0xfdfa182400007f10UL, 0xfdf74f4b0000af14UL, 0xfe0c154a000049ddUL,
  0x0080226100004c01UL, 0x0800000060000042UL, 0x60027c0015000000UL, 0x6007004300070000UL,
  0x0000002000004000UL, 0x00000000600c0043UL, 0x0080212110411041UL, 0x0088020038007c00UL,
  0x3427000038020123UL, 0x0020000200680068UL, 0x0000000000000d00UL, 0x0000000400000001UL,
  0x0010000000000024UL, 0x00000006380c0042UL, 0x380d004300000007UL, 0x342c483f00000008UL,
  0x0000000038110043UL, 0x0080206100000000UL, 0x0008018420007c00UL, 0x70479d3020020043UL,
  0x200500c300000480UL, 0x0000000000000000UL, 0x0000000000000000UL, 0x0010000000000024UL,
  0x00000006200c0042UL, 0x200d004300000007UL, 0x7047a1ef00000001UL, 0x0000000020110043UL,
  0x0080204100000008UL, 0x000800081c007c00UL, 0x343348001c020123UL, 0x0020000400340034UL,
  0x0000000400000680UL, 0x0001520000000008UL, 0x0010000000000024UL, 0x000000061c0c0042UL,
  0x1c0d004300000007UL, 0x34349a3f00000008UL, 0x000000001c110043UL, 0x10007c0000000000UL,
  0x1000042400000002UL, 0x0000000000000064UL, 0x4000000010007c00UL, 0x0000006410007bc4UL,
  0x10007c0000000000UL, 0x10047c0000000001UL, 0x1015004300000027UL, 0x0000000700000013UL,
  0x0000002b10207c00UL, 0x0000001b10247c00UL, 0x48007c001c002001UL, 0x6000200120100035UL,
  0x2000200168002001UL, 0x1c007fe438002001UL, 0x0000000000000064UL, 0x0000000010047c00UL,
  0x0000000010150043UL, 0x10207c0000000000UL, 0x10247c0000000000UL, 0x1c007c0000000000UL,
  0x1c00042400000002UL, 0x0000000000000064UL, 0x400000001c007c00UL, 0x000000641c007bc4UL,
  0x0080004100000000UL, 0x0000000248007c00UL, 0x0000006448000424UL, 0x48007c0000000000UL,
  0x48007bc440000000UL, 0x0000000000000064UL, 0x60007c00008001a1UL, 0x6000042408000002UL,
  0x0000000000000064UL, 0x4800000060007c00UL, 0x0000006460007bc4UL, 0x0080026100000000UL,
  0x0800000268007c00UL, 0x0000006468000424UL, 0x68007c0000000000UL, 0x68007bc448000000UL,
  0x0000000000000064UL, 0x20007c00008002a1UL, 0x2000042400000002UL, 0x0000000000000064UL,
  0x4000000020007c00UL, 0x0000006420007bc4UL, 0x0080006100000000UL, 0x0000000238007c00UL,
  0x0000006438000424UL, 0x38007c0000000000UL, 0x38007bc440000000UL, 0x0000000000000064UL,
  0x0000025d00800121UL, 0x3c007c0000802141UL, 0x3c0200e310d00034UL, 0x0000110010200101UL,
  0x0034068010e34404UL, 0x00330000067f0000UL, 0x3c0a7c0000000001UL, 0x3c0d7c0000000000UL,
  0x0080224100000000UL, 0x080000005c000042UL, 0x5c020123156000fcUL, 0x0000000000080000UL,
  0x0000a8ff0000000fUL, 0x000000000002a3ffUL, 0x070403f100000000UL, 0x5c0c004300000001UL,
  0x2042204200000000UL, 0x000000015c0b7c00UL, 0xfec614ef5d001003UL, 0x001e188a0000157aUL,
  0x00801500000087faUL, 0xffb90cdf00005471UL, 0xfec41fa600005260UL, 0xff663b3300008a79UL,
  0xffb60c910000727eUL, 0xffc326e200002936UL, 0xffb31c6900004acbUL, 0xff5319e7000043a5UL,
  0x00121545000058f9UL, 0xff642adc00005caeUL, 0xff8429bf0000682fUL, 0xff6818a80000287eUL,
  0xffdc1820000098c4UL, 0xffee16ad0000283cUL, 0xffad2f3a0000e4eeUL, 0xff5c11e60000e07cUL,
  0xff400ed10000c86cUL, 0xff35147c00005607UL, 0xff481d0c00001e88UL, 0xff09118c0000a0f3UL,
  0xff6e15500000fcafUL, 0xff8f0c3300008422UL, 0xff7e190b0000780bUL, 0xff63139800001488UL,
  0xff6b187d00005357UL, 0xfff511d400006315UL, 0xffdd10820000cd56UL, 0xff261973000052ebUL,
  0xff4c122d0000fc84UL, 0x0032213600006203UL, 0xff5e17660000a96aUL, 0xff561c220000baf1UL,
  0xffa920300000610fUL, 0xff330ff50000e62eUL, 0xff85157600000a61UL, 0x002e14810000887cUL,
  0xff3d10800000261eUL, 0xff451da50000fd96UL, 0xffd319140000a269UL, 0xffa716a90000db1bUL,
  0x004d250d0000a454UL, 0xff25246c00002be0UL, 0xff6713c40000adc9UL, 0xffd7113f000025adUL,
  0xffe249c90000eabfUL, 0xff4b109a000007baUL, 0xffb318fd0000ecd7UL, 0xff4517c60000fc1cUL,
  0xff16270100001d12UL, 0xff76386600007573UL, 0xffbc1a070000b82bUL, 0xffae1737000099c0UL,
  0xff780d14000054a9UL, 0x00220ca3000049beUL, 0xffc4167e000013bbUL, 0xffe825430000dabcUL,
  0xffbe17650000b934UL, 0xff7e1edc00008edaUL, 0xfeee185200004659UL, 0xff7a20b20000ef05UL,
  0xfff80e3e0000e41eUL, 0xff13227c0000770fUL, 0x008022810000f84eUL, 0x0800000064000042UL,
  0x64027c0015000000UL, 0x6407004300070000UL, 0x0000002000004000UL, 0x00000000640c0043UL,
  0x008020a110411041UL, 0x0888030028007c00UL, 0x3433480028020043UL, 0x280500c3000070abUL,
  0x0000000000000000UL, 0x0001520000000004UL, 0x0010000000000024UL, 0x00000006280c0042UL,
  0x280d004300000007UL, 0x34349a3f00000004UL, 0x0000000028110043UL, 0x0080210100000000UL,
  0x0888018434007c00UL, 0x70477e6034020043UL, 0x340500c3000002acUL, 0x0000000000000000UL,
  0x0000000000000000UL, 0x0010000000000024UL, 0x00000006340c0042UL, 0x340d004300000007UL,
  0x704786a700000001UL, 0x0000000034110043UL, 0x0080208100000008UL, 0x0008010824007c00UL,
  0x342e000024020043UL, 0x240500c30000a900UL, 0x0000a90000000000UL, 0x0000000000000000UL,
  0x0010000000000024UL, 0x00000006240c0042UL, 0x240d004300000007UL, 0x3430a43f00000004UL,
  0x0000000024110043UL, 0x0080202100000000UL, 0x0008010818007c00UL, 0x3430a40018020043UL,
  0x180500c30000a900UL, 0x0000a90000000000UL, 0x0000000000000000UL, 0x0010000000000024UL,
  0x00000006180c0042UL, 0x180d004300000007UL, 0x3433483f00000004UL, 0x0000000018110043UL,
  0x10007c0000000000UL, 0x1000042400000002UL, 0x0000000000000064UL, 0x4000000010007c00UL,
  0x0000006410007bc4UL, 0x10007c0000000000UL, 0x10037c0000000001UL, 0x10067c0000000029UL,
  0x100c004300000025UL, 0x000000110000000bUL, 0x00000015101e7c00UL, 0x0000002510227c00UL,
  0x2400200118002001UL, 0x10d000353c007c00UL, 0x640020015c002001UL, 0x3400200128002001UL,
  0x0000006418007fe4UL, 0x24007fe400000000UL, 0x0000000000000064UL, 0x0000000010037c00UL,
  0x0000000010067c00UL, 0x00000000100c0043UL, 0x101e7c0000000000UL, 0x10227c0000000000UL,
  0x18007c0000000000UL, 0x1800042400000002UL, 0x0000000000000064UL, 0x4000000018007c00UL,
  0x0000006418007bc4UL, 0x0080002100000000UL, 0x0000000224007c00UL, 0x0000006424000424UL,
  0x24007c0000000000UL, 0x24007bc440000000UL, 0x0000000000000064UL, 0x3c007c0000800081UL,
  0x3c00042400000002UL, 0x0000000000000064UL, 0x400000003c007c00UL, 0x000000643c007bc4UL,
  0x0080014100000000UL, 0x080000025c007c00UL, 0x000000645c000424UL, 0x5c007c0000000000UL,
  0x5c007bc448000000UL, 0x0000000000000064UL, 0x64007c0000800241UL, 0x6400042408000002UL,
  0x0000000000000064UL, 0x4800000064007c00UL, 0x0000006464007bc4UL, 0x0080028100000000UL,
  0x0000000228007c00UL, 0x0000006428000424UL, 0x28007c0000000000UL, 0x28007bc440000000UL,
  0x0000000000000064UL, 0x34007c00008000a1UL, 0x3400042400000002UL, 0x0000000000000064UL,
  0x4000000034007c00UL, 0x0000006434007bc4UL, 0x0080010100000000UL, 0x008021610000027dUL,
  0x0010003440007c00UL, 0x10100101400200e3UL, 0x1077400400001100UL, 0x033f000000340340UL,
  0x000f004000330000UL, 0x00000000400a7c00UL, 0x00000000400d7c00UL, 0x44007c0000802181UL,
  0x440200e300100020UL, 0x0000110010100101UL, 0x0034034010774000UL, 0x00330000033f0000UL,
  0x440a7c00001f1040UL, 0x440d7c0000000000UL, 0x008021a100000000UL, 0x0010002048007c00UL,
  0x10100101480200e3UL, 0x1077400000001100UL, 0x033f000000340340UL, 0x002f204000330000UL,
  0x00000000480a7c00UL, 0x00000000480d7c00UL, 0x3c007c0000802141UL, 0x3c0200e300100020UL,
  0x0000110010100101UL, 0x0034034010634400UL, 0x00330000033f0000UL, 0x3c0a7c00003f3040UL,
  0x3c0d7c0000000000UL, 0x0080226100000000UL, 0x0800000060000042UL, 0x60020123356000fcUL,
  0x0000000000098000UL, 0x0000a8ff0000000fUL, 0x00000000000151ffUL, 0x078403f100000000UL,
  0x600c006300000001UL, 0x2042204200000000UL, 0x600b7c00ff80ffbaUL, 0x6100080300000001UL,
  0x00005230fb8427acUL, 0x00001532fb712378UL, 0x00007956fcfa133aUL, 0x00006142fd4f1bddUL,
  0x000046a6fc170fe1UL, 0x000068aefc5b17c0UL, 0x00005707fc4615caUL, 0x00002ca1fc992bc0UL,
  0x0000c193fd2520d3UL, 0x00004c1afa80263aUL, 0x0000d7c1fc31253eUL, 0x0000d4befcbc1c18UL,
  0x0000e074fddf4461UL, 0x0000a160fd362821UL, 0x0000733bfbfa1b42UL, 0x0000e354fa771e06UL,
  0x0000dc0dfc56195cUL, 0x0000d75afbe020adUL, 0x00009265fc4d2129UL, 0x0000fd3efc441ee0UL,
  0x00008b4ffcb1131cUL, 0x00006960fba82061UL, 0x0000c09cfbf71966UL, 0x0000af32fc5e1b72UL,
  0x00002b4dfc091d4cUL, 0x00003758fc130e54UL, 0x0000d4cdfc3a1c32UL, 0x000012e7fcaa1a18UL,
  0x0000892dfa782bf3UL, 0x00003098fc7625adUL, 0x00006a3bfb0d1f47UL, 0x0000fc55fbeb1bd9UL,
  0x68000042008022a1UL, 0x1500000008000000UL, 0x0007000068027c00UL, 0x0000400068070043UL,
  0x680c004300000020UL, 0x1041104100000000UL, 0x30007c00008020e1UL, 0x3002004300080100UL,
  0x0000a9003430a400UL, 0x00000000300500c3UL, 0x000000010002a400UL, 0x0000002400000000UL,
  0x300c004200100000UL, 0x0000000700000006UL, 0x00000002300d0043UL, 0x301100433433483fUL,
  0x0000000000000000UL, 0x1c007c0000802041UL, 0x1c02004300080184UL, 0x0000080070478670UL,
  0x000000001c0500c3UL, 0x0000000000000000UL, 0x0000002400000000UL, 0x1c0c004200100000UL,
  0x0000000700000006UL, 0x000000011c0d0043UL, 0x1c11004370478eafUL, 0x0000000800000000UL,
  0x20007c0000802061UL, 0x2002004300080100UL, 0x0000a90034314d00UL, 0x00000000200500c3UL,
  0x000000010002a400UL, 0x0000002400000000UL, 0x200c004200100000UL, 0x0000000700000006UL,
  0x00000002200d0043UL, 0x201100433433483fUL, 0x0000000000000000UL, 0x18007c0000802021UL,
  0x1802004300080100UL, 0x0000a9003431f600UL, 0x00000000180500c3UL, 0x000000010002a400UL,
  0x0000002400000000UL, 0x180c004200100000UL, 0x0000000700000006UL, 0x00000002180d0043UL,
  0x181100433433483fUL, 0x0000000000000000UL, 0x34007c0000802101UL, 0x3402004300080100UL,
  0x0000a90034329f00UL, 0x00000000340500c3UL, 0x000000010002a400UL, 0x0000002400000000UL,
  0x340c004200100000UL, 0x0000000700000006UL, 0x00000002340d0043UL, 0x341100433433483fUL,
  0x0000000000000000UL, 0x2c007c00008020c1UL, 0x2c02004300080100UL, 0x0000a900342e0000UL,
  0x000000002c0500c3UL, 0x000000000000a900UL, 0x0000002400000000UL, 0x2c0c004200100000UL,
  0x0000000700000006UL, 0x000000042c0d0043UL, 0x2c1100433430a43fUL, 0x0000000000000000UL,
  0x38007c0000802121UL, 0x3802004300080108UL, 0x0000a900342af600UL, 0x00000000380500c3UL,
  0x000000000000a900UL, 0x0000002400000000UL, 0x380c004200100000UL, 0x0000000700000006UL,
  0x00000002380d0043UL, 0x38110043342c483fUL, 0x0000000000000000UL, 0x14007c0000802001UL,
  0x1402004300080108UL, 0x0000a90034270000UL, 0x00000000140500c3UL, 0x000000000000a900UL,
  0x0000002400000000UL, 0x140c004200100000UL, 0x0000000700000006UL, 0x00000004140d0043UL,
  0x141100433429a43fUL, 0x0000000000000000UL, 0x0000000210007c00UL, 0x0000006410000424UL,
  0x10007c0000000000UL, 0x10007bc440000000UL, 0x0000000000000064UL, 0x0000000110007c00UL,
  0x0000002b10027c00UL, 0x00000027100b00c3UL, 0x0000000500000011UL, 0x0000000f0000001bUL,
  0x101200c300000005UL, 0x0000000500000007UL, 0x0000000300000017UL, 0x0000001900000005UL,
  0x0000001510207c00UL, 0x0000000d10247c00UL, 0x3800200114002001UL, 0x001000213c007c00UL,
  0x0010003540007c00UL, 0x0010002144007c00UL, 0x0010002148007c00UL, 0x6800200160002001UL,
  0x1c00200118002001UL, 0x2c00200120002001UL, 0x3400200130002001UL, 0x0000006414007fe4UL,
  0x38007fe400000000UL, 0x0000000000000064UL, 0x0000000010027c00UL, 0x00000000100b00c3UL,
  0x0000000000000000UL, 0x0000000000000000UL, 0x101200c300000000UL, 0x0000000000000000UL,
  0x0000000000000000UL, 0x0000000000000000UL, 0x0000000010207c00UL, 0x0000000010247c00UL,
  0x0000000214007c00UL, 0x0000006414000424UL, 0x14007c0000000000UL, 0x14007bc440000000UL,
  0x0000000000000064UL, 0x38007c0000800001UL, 0x3800042400000002UL, 0x0000000000000064UL,
  0x4000000038007c00UL, 0x0000006438007bc4UL, 0x0080012100000000UL, 0x000000023c007c00UL,
  0x000000643c000424UL, 0x3c007c0000000000UL, 0x3c007bc440000000UL, 0x0000000000000064UL,
  0x40007c0000800141UL, 0x4000042400000002UL, 0x0000000000000064UL, 0x4000000040007c00UL,
  0x0000006440007bc4UL, 0x0080016100000000UL, 0x0000000244007c00UL, 0x0000006444000424UL,
  0x44007c0000000000UL, 0x44007bc440000000UL, 0x0000000000000064UL, 0x48007c0000800181UL,
  0x4800042400000002UL, 0x0000000000000064UL, 0x4000000048007c00UL, 0x0000006448007bc4UL,
  0x008001a100000000UL, 0x0800000260007c00UL, 0x0000006460000424UL, 0x60007c0000000000UL,
  0x60007bc448000000UL, 0x0000000000000064UL, 0x68007c0000800261UL, 0x6800042408000002UL,
  0x0000000000000064UL, 0x4800000068007c00UL, 0x0000006468007bc4UL, 0x008002a100000000UL,
  0x0000000218007c00UL, 0x0000006418000424UL, 0x18007c0000000000UL, 0x18007bc440000000UL,
  0x0000000000000064UL, 0x1c007c0000800021UL, 0x1c00042400000002UL, 0x0000000000000064UL,
  0x400000001c007c00UL, 0x000000641c007bc4UL, 0x0080004100000000UL, 0x0000000220007c00UL,
  0x0000006420000424UL, 0x20007c0000000000UL, 0x20007bc440000000UL, 0x0000000000000064UL,
  0x2c007c0000800061UL, 0x2c00042400000002UL, 0x0000000000000064UL, 0x400000002c007c00UL,
  0x000000642c007bc4UL, 0x008000c100000000UL, 0x0000000230007c00UL, 0x0000006430000424UL,
  0x30007c0000000000UL, 0x30007bc440000000UL, 0x0000000000000064UL, 0x34007c00008000e1UL,
  0x3400042400000002UL, 0x0000000000000064UL, 0x4000000034007c00UL, 0x0000006434007bc4UL,
  0x0080010100000000UL, 0x008021410000029dUL, 0x001000343c007c00UL, 0x101001013c0200e3UL,
  0x1077400400001100UL, 0x033f000000340340UL, 0x000f004000330000UL, 0x000000003c0a7c00UL,
  0x000000003c0d7c00UL, 0x40007c0000802161UL, 0x400200e300100020UL, 0x0000110010100101UL,
  0x0034034010774000UL, 0x00330000033f0000UL, 0x400a7c00001f1040UL, 0x400d7c0000000000UL,
  0x0080218100000000UL, 0x0010002044007c00UL, 0x10100101440200e3UL, 0x1077400000001100UL,
  0x033f000000340340UL, 0x002f204000330000UL, 0x00000000440a7c00UL, 0x00000000440d7c00UL,
  0x48007c00008021a1UL, 0x480200e300100020UL, 0x0000110010100101UL, 0x0034034010634400UL,
  0x00330000033f0000UL, 0x480a7c00003f3040UL, 0x480d7c0000000000UL, 0x0080224100000000UL,
  0x080000005c000042UL, 0x5c020123156000fcUL, 0x0000000000090000UL, 0x0000a8ff0000000fUL,
  0x00000000000151ffUL, 0x078403f100000000UL, 0x5c0c004300000001UL, 0x2042204200000000UL,
  0x000000015c0b7c00UL, 0xfdc41f065d000803UL, 0xfe014e8500009d30UL, 0xff73214f00000de7UL,
  0x001a245e00003d15UL, 0xfc643f3f0000001dUL, 0xfd4e284b0000dfffUL, 0xfe302f9d0000ecc2UL,
  0xfe7b175d000058bbUL, 0xfee526340000d08dUL, 0xfee520d200003f5eUL, 0xfe452442000040b3UL,
  0xff983108000054f0UL, 0xff1925e9000022c5UL, 0xfe6d26d1000075cbUL, 0xfe61215a000046e0UL,
  0xff1940dd00004dc4UL, 0xff7915e20000a0e5UL, 0xfefa2b72000076edUL, 0xfdb03ab70000b37cUL,
  0xfdca306b0000c8dfUL, 0xff85353700008bacUL, 0xffe129e10000ccb3UL, 0xff072bdf0000cd19UL,
  0xfe8b2a900000ad6eUL, 0xfe48389100006c21UL, 0xfdf22e320000a750UL, 0xfdd523de00002f47UL,
  0xfeb1407c0000f5f8UL, 0x0089351f0000846dUL, 0xfe3029250000a989UL, 0xfeb027a50000dc86UL,
  0xfdbb285f00006472UL, 0x008022810000accfUL, 0x0800000064000042UL, 0x64027c0015000000UL,
  0x6407004300070000UL, 0x0000002000004000UL, 0x00000000640c0043UL, 0x0080206110411041UL,
  0x0008010020007c00UL, 0x3427000020020043UL, 0x200500c30000a900UL, 0x0002a40000000000UL,
  0x0000000000000001UL, 0x0010000000000024UL, 0x00000006200c0042UL, 0x200d004300000007UL,
  0x3429a43f00000002UL, 0x0000000020110043UL, 0x0080204100000000UL, 0x000801841c007c00UL,
  0x70478e701c020043UL, 0x1c0500c300000800UL, 0x0000000000000000UL, 0x0000000000000000UL,
  0x0010000000000024UL, 0x000000061c0c0042UL, 0x1c0d004300000007UL, 0x704796af00000001UL,
  0x000000001c110043UL, 0x0080212100000008UL, 0x0008010038007c00UL, 0x3427a90038020043UL,
  0x380500c30000a900UL, 0x0002a40000000000UL, 0x0000000000000001UL, 0x0010000000000024UL,
  0x00000006380c0042UL, 0x380d004300000007UL, 0x3429a43f00000002UL, 0x0000000038110043UL,
  0x0080200100000000UL, 0x0008010014007c00UL, 0x3428520014020043UL, 0x140500c30000a900UL,
  0x0002a40000000000UL, 0x0000000000000001UL, 0x0010000000000024UL, 0x00000006140c0042UL,
  0x140d004300000007UL, 0x3429a43f00000002UL, 0x0000000014110043UL, 0x0080210100000000UL,
  0x0008010034007c00UL, 0x3428fb0034020043UL, 0x340500c30000a900UL, 0x0002a40000000000UL,
  0x0000000000000001UL, 0x0010000000000024UL, 0x00000006340c0042UL, 0x340d004300000007UL,
  0x3429a43f00000002UL, 0x0000000034110043UL, 0x008020a100000000UL, 0x0008010828007c00UL,
  0x342e000028020043UL, 0x280500c30000a900UL, 0x0000a90000000000UL, 0x0000000000000000UL,
  0x0010000000000024UL, 0x00000006280c0042UL, 0x280d004300000007UL, 0x342f523f00000002UL,
  0x0000000028110043UL, 0x0080208100000000UL, 0x0008000824007c00UL, 0x342f520024020123UL,
  0x0020001000340034UL, 0x0000001000000680UL, 0x0001520000000002UL, 0x0010000000000024UL,
  0x00000006240c0042UL, 0x240d004300000007UL, 0x3430a43f00000002UL, 0x0000000024110043UL,
  0x10007c0000000000UL, 0x1000042400000002UL, 0x0000000000000064UL, 0x4000000010007c00UL,
  0x0000006410007bc4UL, 0x10007c0000000000UL, 0x1006004300000001UL, 0x0000002500000029UL,
  0x00000007100c0043UL, 0x100f012300000005UL, 0x0000000500000013UL, 0x0000000100000015UL,
  0x0000001700000005UL, 0x0000000500000011UL, 0x101e7c0000000019UL, 0x10227c000000001bUL,
  0x2400200100000025UL, 0x3c007c0028002001UL, 0x40007c0000100035UL, 0x44007c0000100021UL,
  0x48007c0000100021UL, 0x5c00200100100021UL, 0x1400200164002001UL, 0x200020011c002001UL,
  0x3800200134002001UL, 0x0000006424007fe4UL, 0x28007fe400000000UL, 0x0000000000000064UL,
  0x0000000010060043UL, 0x100c004300000000UL, 0x0000000000000000UL, 0x00000000100f0123UL,
  0x0000000000000000UL, 0x0000000000000000UL, 0x0000000000000000UL, 0x0000000000000000UL,
  0x00000000101e7c00UL, 0x0000000010227c00UL, 0x0000000224007c00UL, 0x0000006424000424UL,
  0x24007c0000000000UL, 0x24007bc440000000UL, 0x0000000000000064UL, 0x28007c0000800081UL,
  0x2800042400000002UL, 0x0000000000000064UL, 0x4000000028007c00UL, 0x0000006428007bc4UL,
  0x008000a100000000UL, 0x000000023c007c00UL, 0x000000643c000424UL, 0x3c007c0000000000UL,
  0x3c007bc440000000UL, 0x0000000000000064UL, 0x40007c0000800141UL, 0x4000042400000002UL,
  0x0000000000000064UL, 0x4000000040007c00UL, 0x0000006440007bc4UL, 0x0080016100000000UL,
  0x0000000244007c00UL, 0x0000006444000424UL, 0x44007c0000000000UL, 0x44007bc440000000UL,
  0x0000000000000064UL, 0x48007c0000800181UL, 0x4800042400000002UL, 0x0000000000000064UL,
  0x4000000048007c00UL, 0x0000006448007bc4UL, 0x008001a100000000UL, 0x080000025c007c00UL,
  0x000000645c000424UL, 0x5c007c0000000000UL, 0x5c007bc448000000UL, 0x0000000000000064UL,
  0x64007c0000800241UL, 0x6400042408000002UL, 0x0000000000000064UL, 0x4800000064007c00UL,
  0x0000006464007bc4UL, 0x0080028100000000UL, 0x0000000214007c00UL, 0x0000006414000424UL,
  0x14007c0000000000UL, 0x14007bc440000000UL, 0x0000000000000064UL, 0x1c007c0000800001UL,
  0x1c00042400000002UL, 0x0000000000000064UL, 0x400000001c007c00UL, 0x000000641c007bc4UL,
  0x0080004100000000UL, 0x0000000220007c00UL, 0x0000006420000424UL, 0x20007c0000000000UL,
  0x20007bc440000000UL, 0x0000000000000064UL, 0x34007c0000800061UL, 0x3400042400000002UL,
  0x0000000000000064UL, 0x4000000034007c00UL, 0x0000006434007bc4UL, 0x0080010100000000UL,
  0x0000000238007c00UL, 0x0000006438000424UL, 0x38007c0000000000UL, 0x38007bc440000000UL,
  0x0000000000000064UL, 0x000002bd00800121UL, 0x3c007c0000802141UL, 0x3c0200e310d00034UL,
  0x0000110010200101UL, 0x0034068010e34303UL, 0x00330000067f0000UL, 0x3c0a7c0000000001UL,
  0x3c0d7c0000000000UL, 0x0080226100000000UL, 0x0800000060000042UL, 0x60020123156000fcUL,
  0x0000000000098000UL, 0x0000a8ff0000000fUL, 0x00000000000151ffUL, 0x078403f100000000UL,
  0x600c004300000001UL, 0x2042204200000000UL, 0x00000001600b7c00UL, 0xff00702161000803UL,
  0xfc2115160000e88dUL, 0xfe5a172a00006ef5UL, 0xf7463e0800000c93UL, 0xfaac2ee400009104UL,
  0xfb85315100004f16UL, 0xfdb315f30000299fUL, 0x003a1dee0000c435UL, 0xfd83185d00000d28UL,
  0xfe8d26e50000edc1UL, 0xfcec18670000733eUL, 0xfc0e1ee5000013ccUL, 0xfc2220f500007b88UL,
  0xfd2c1a410000f7bbUL, 0xfd8824a500007c5dUL, 0xfd393b830000759fUL, 0xfd7316ca00002987UL,
  0xfd7731570000b6f6UL, 0xfd8915a300003eb5UL, 0xfd201d5400000222UL, 0xfbf8132d00000a7dUL,
  0xfc232561000011b3UL, 0xfdaf13350000f8f9UL, 0xfdb517960000804eUL, 0xfd75254a000000ffUL,
  0xfcdd168b0000d226UL, 0xfe4208ed0000f512UL, 0xfd3c105500004fedUL, 0x00332b7a00005e31UL,
  0xfc812db80000eb10UL, 0xf8b76cff0000d6c2UL, 0xfb19079c0000984fUL, 0x008022a1000012dfUL,
  0x0800000068000042UL, 0x68027c0015000000UL, 0x6807004300070000UL, 0x0000002000004000UL,
  0x00000000680c0043UL, 0x0080206110411041UL, 0x0888030020007c00UL, 0x342f520020020043UL,
  0x200500c3000070abUL, 0x0000000000000000UL, 0x0001520000000002UL, 0x0010000000000024UL,
  0x00000006200c0042UL, 0x200d004300000007UL, 0x3430a43f00000002UL, 0x0000000020110043UL,
  0x008020c100000000UL, 0x088801842c007c00UL, 0x7047d7b02c020043UL, 0x2c0500c300000156UL,
  0x0000000000000000UL, 0x0000000000000000UL, 0x0010000000000024UL, 0x000000062c0c0042UL,
  0x2c0d004300000007UL, 0x7047dbf700000001UL, 0x000000002c110043UL, 0x008020e100000008UL,
  0x0008000830007c00UL, 0x3430a40030020123UL, 0x0020001000340034UL, 0x0000001000000680UL,
  0x0001520000000002UL, 0x0010000000000024UL, 0x00000006300c0042UL, 0x300d004300000007UL,
  0x3431f63f00000002UL, 0x0000000030110043UL, 0x10007c0000000000UL, 0x1000042400000002UL,
  0x0000000000000064UL, 0x4000000010007c00UL, 0x0000006410007bc4UL, 0x10007c0000000000UL,
  0x10097c0000000001UL, 0x100c00430000002bUL, 0x0000000d00000007UL, 0x0000001510207c00UL,
  0x0000002710247c00UL, 0x3c007c0030002001UL, 0x6000200110d00035UL, 0x2000200168002001UL,
  0x30007fe42c002001UL, 0x0000000000000064UL, 0x0000000010097c00UL, 0x00000000100c0043UL,
  0x10207c0000000000UL, 0x10247c0000000000UL, 0x30007c0000000000UL, 0x3000042400000002UL,
  0x0000000000000064UL, 0x4000000030007c00UL, 0x0000006430007bc4UL, 0x008000e100000000UL,
  0x000000023c007c00UL, 0x000000643c000424UL, 0x3c007c0000000000UL, 0x3c007bc440000000UL,
  0x0000000000000064UL, 0x60007c0000800141UL, 0x6000042408000002UL, 0x0000000000000064UL,
  0x4800000060007c00UL, 0x0000006460007bc4UL, 0x0080026100000000UL, 0x0800000268007c00UL,
  0x0000006468000424UL, 0x68007c0000000000UL, 0x68007bc448000000UL, 0x0000000000000064UL,
  0x20007c00008002a1UL, 0x2000042400000002UL, 0x0000000000000064UL, 0x4000000020007c00UL,
  0x0000006420007bc4UL, 0x0080006100000000UL, 0x000000022c007c00UL, 0x000000642c000424UL,
  0x2c007c0000000000UL, 0x2c007bc440000000UL, 0x0000000000000064UL, 0x000002dd008000c1UL,
  0x40007c0000802161UL, 0x400200e300100034UL, 0x0000115504040303UL, 0x003400d010634303UL,
  0x0033000000cf0000UL, 0x400a7c0000000001UL, 0x400d7c0000000000UL, 0x0080224100000000UL,
  0x080000005c000042UL, 0x5c020123156000fcUL, 0x0000000000078000UL, 0x00002a3f00000003UL,
  0x00000000000151ffUL, 0x078403fd00000000UL, 0x5c0c004300000001UL, 0x2042204200000000UL,
  0x000000015c0b7c00UL, 0xffc0024c5d000803UL, 0xffc112b600007a89UL, 0xffd50e940000c368UL,
  0xffc404e3000088f1UL, 0xffae603000006a32UL, 0xffb318e90000db62UL, 0xffbe106100006c3bUL,
  0xffb5107e0000aa0eUL, 0xffbb111600001d1bUL, 0xffc10e2c0000fcaaUL, 0xffc3129a00008947UL,
  0xffc20e1600007ceaUL, 0xffbf0f42000090bcUL, 0xffc90da40000fa47UL, 0xff7c05650000cf59UL,
  0xffd5060d0000a218UL, 0xffcd0b74000022d9UL, 0xffc00520000007a2UL, 0xff97077200005f6bUL,
  0xffc314480000be48UL, 0xffbf1cdf0000be41UL, 0xffbb0b140000bf0aUL, 0xffc01ef100008271UL,
  0xffcc098f00008f1cUL, 0xffb5067e00001e69UL, 0xffb90c870000c916UL, 0xffbc0e630000da53UL,
  0xffc4102f00009427UL, 0xffb607620000d009UL, 0xffb31067000022e1UL, 0xffb401e10000232dUL,
  0xffb54fe900006cceUL, 0x0080228100001d1bUL, 0x0800000064000042UL, 0x64027c0015000000UL,
  0x6407004300070000UL, 0x0000002000004000UL, 0x00000000640c0043UL, 0x0080210110411041UL,
  0x0008000034007c00UL, 0x3430a40034020123UL, 0x0020000400340034UL, 0x0000000000000680UL,
  0x0000000400000001UL, 0x0010000000000024UL, 0x00000006340c0042UL, 0x340d004300000007UL,
  0x3431f63f00000008UL, 0x0000000034110043UL, 0x0080206100000000UL, 0x0008018420007c00UL,
  0x7047a1b020020043UL, 0x200500c300000480UL, 0x0000000000000000UL, 0x0000000000000000UL,
  0x0010000000000024UL, 0x00000006200c0042UL, 0x200d004300000007UL, 0x7047a66f00000001UL,
  0x0000000020110043UL, 0x0080204100000008UL, 0x000800081c007c00UL, 0x3431f6001c020123UL,
  0x0020000400340034UL, 0x0000000400000680UL, 0x0001520000000008UL, 0x0010000000000024UL,
  0x000000061c0c0042UL, 0x1c0d004300000007UL, 0x3433483f00000008UL, 0x000000001c110043UL,
  0x10007c0000000000UL, 0x1000042400000002UL, 0x0000000000000064UL, 0x4000000010007c00UL,
  0x0000006410007bc4UL, 0x10007c0000000000UL, 0x10047c0000000001UL, 0x100f004300000029UL,
  0x0000000700000011UL, 0x00000017101e7c00UL, 0x0000002510227c00UL, 0x40007c001c002001UL,
  0x5c00200100100035UL, 0x2000200164002001UL, 0x1c007fe434002001UL, 0x0000000000000064UL,
  0x0000000010047c00UL, 0x00000000100f0043UL, 0x101e7c0000000000UL, 0x10227c0000000000UL,
  0x1c007c0000000000UL, 0x1c00042400000002UL, 0x0000000000000064UL, 0x400000001c007c00UL,
  0x000000641c007bc4UL, 0x0080004100000000UL, 0x0000000240007c00UL, 0x0000006440000424UL,
  0x40007c0000000000UL, 0x40007bc440000000UL, 0x0000000000000064UL, 0x5c007c0000800161UL,
  0x5c00042408000002UL, 0x0000000000000064UL, 0x480000005c007c00UL, 0x000000645c007bc4UL,
  0x0080024100000000UL, 0x0800000264007c00UL, 0x0000006464000424UL, 0x64007c0000000000UL,
  0x64007bc448000000UL, 0x0000000000000064UL, 0x20007c0000800281UL, 0x2000042400000002UL,
  0x0000000000000064UL, 0x4000000020007c00UL, 0x0000006420007bc4UL, 0x0080006100000000UL,
  0x0000000234007c00UL, 0x0000006434000424UL, 0x34007c0000000000UL, 0x34007bc440000000UL,
  0x0000000000000064UL, 0x000002fd00800101UL, 0x44007c0000802181UL, 0x440200e310d00034UL,
  0x0000110010200101UL, 0x0034068010e34303UL, 0x00330000067f0000UL, 0x440a7c0000000001UL,
  0x440d7c0000000000UL, 0x0080226100000000UL, 0x0800000060000042UL, 0x60020123356000fcUL,
  0x0000000000098000UL, 0x0000a8ff0000000fUL, 0x00000000000151ffUL, 0x078403f100000000UL,
  0x600c006300000001UL, 0x2042204200000000UL, 0x600b7c00ff800017UL, 0x6100080300000001UL,
  0x00007d39fc031733UL, 0x0000faaefcbc108bUL, 0x000099abfd3a1763UL, 0x0000c46afb8303a7UL,
  0x000039fbfcdc1981UL, 0x0000776cfc3d1e25UL, 0x00000514fc5b14c2UL, 0x000065e8fcd81b45UL,
  0x0000f609fbd70cafUL, 0x000090a2fd9d2027UL, 0x0000e0ddfb722751UL, 0x0000f3d0fce1122aUL,
  0x0000905cfbbe1d3bUL, 0x00002c44fd7f15a2UL, 0x00000a87fc88311fUL, 0x00005216fb5f18f0UL,
  0x00003681fad316bcUL, 0x00007129fc901498UL, 0x00009dfafcc21b9aUL, 0x0000dd9afbf91e6bUL,
  0x000085c1fc2814d3UL, 0x00007637fcc11221UL, 0x0000000afbdb0a45UL, 0x0000b54afc211d3dUL,
  0x000042b3fb5f149aUL, 0x0000ed60fc2b0fbcUL, 0x00007397fd141da8UL, 0x0000873afbbc1b41UL,
  0x0000640ffbcc154cUL, 0x0000df00fd2b4c93UL, 0x0000c51bfc72107dUL, 0x00004a87faff3fc2UL,
  0x68000042008022a1UL, 0x0500016008000000UL, 0x0007180168027c00UL, 0x4bae4bae68070043UL,
  0x680c004300004000UL, 0x1041104100000000UL, 0x5c00004200802241UL, 0x1500000008000000UL,
  0x000700005c027c00UL, 0x000040005c070043UL, 0x5c0c004300000020UL, 0x1041104100000000UL,
  0x1c007c0000802041UL, 0x1c02004308880300UL, 0x000070ab3431f600UL, 0x000000001c0500c3UL,
  0x0000000200000000UL, 0x0000002400015200UL, 0x1c0c004200100000UL, 0x0000000700000006UL,
  0x000000021c0d0043UL, 0x1c1100433433483fUL, 0x0000000000000000UL, 0x18007c0000802021UL,
  0x1802004308880184UL, 0x000001567047dbc0UL, 0x00000000180500c3UL, 0x0000000000000000UL,
  0x0000002400000000UL, 0x180c004200100000UL, 0x0000000700000006UL, 0x00000001180d0043UL,
  0x181100437047e007UL, 0x0000000800000000UL, 0x34007c0000802101UL, 0x3402004300080100UL,
  0x0000a900342e0000UL, 0x00000000340500c3UL, 0x000000000000a900UL, 0x0000002400000000UL,
  0x340c004200100000UL, 0x0000000700000006UL, 0x00000002340d0043UL, 0x34110043342f523fUL,
  0x0000000000000000UL, 0x28007c00008020a1UL, 0x2802004300080108UL, 0x0000a900342f5200UL,
  0x00000000280500c3UL, 0x000000000000a900UL, 0x0000002400000000UL, 0x280c004200100000UL,
  0x0000000700000006UL, 0x00000002280d0043UL, 0x281100433430a43fUL, 0x0000000000000000UL,
  0x30007c00008020e1UL, 0x3002012300080008UL, 0x003400343430a400UL, 0x0000068000200010UL,
  0x0000000200000010UL, 0x0000002400015200UL, 0x300c004200100000UL, 0x0000000700000006UL,
  0x00000002300d0043UL, 0x301100433431f63fUL, 0x0000000000000000UL, 0x0000000210007c00UL,
  0x0000006410000424UL, 0x10007c0000000000UL, 0x10007bc440000000UL, 0x0000000000000064UL,
  0x0000000110007c00UL, 0x0000002b10077c00UL, 0x0000002510097c00UL, 0x0000000510120043UL,
  0x101e7c0000000003UL, 0x10207c000000002bUL, 0x1024004300000019UL, 0x0000002700000011UL,
  0x3000200128002001UL, 0x10d0003544007c00UL, 0x600020015c002001UL, 0x1800200168002001UL,
  0x340020011c002001UL, 0x0000006428007fe4UL, 0x30007fe400000000UL, 0x0000000000000064UL,
  0x0000000010077c00UL, 0x0000000010097c00UL, 0x0000000010120043UL, 0x101e7c0000000000UL,
  0x10207c0000000000UL, 0x1024004300000000UL, 0x0000000000000000UL, 0x0000000228007c00UL,
  0x0000006428000424UL, 0x28007c0000000000UL, 0x28007bc440000000UL, 0x0000000000000064UL,
  0x30007c00008000a1UL, 0x3000042400000002UL, 0x0000000000000064UL, 0x4000000030007c00UL,
  0x0000006430007bc4UL, 0x008000e100000000UL, 0x0000000244007c00UL, 0x0000006444000424UL,
  0x44007c0000000000UL, 0x44007bc440000000UL, 0x0000000000000064UL, 0x5c007c0000800181UL,
  0x5c00042408000002UL, 0x0000000000000064UL, 0x480000005c007c00UL, 0x000000645c007bc4UL,
  0x0080024100000000UL, 0x0800000260007c00UL, 0x0000006460000424UL, 0x60007c0000000000UL,
  0x60007bc448000000UL, 0x0000000000000064UL, 0x68007c0000800261UL, 0x6800042408000002UL,
  0x0000000000000064UL, 0x4800000068007c00UL, 0x0000006468007bc4UL, 0x008002a100000000UL,
  0x0000000218007c00UL, 0x0000006418000424UL, 0x18007c0000000000UL, 0x18007bc440000000UL,
  0x0000000000000064UL, 0x1c007c0000800021UL, 0x1c00042400000002UL, 0x0000000000000064UL,
  0x400000001c007c00UL, 0x000000641c007bc4UL, 0x0080004100000000UL, 0x0000000234007c00UL,
  0x0000006434000424UL, 0x34007c0000000000UL, 0x34007bc440000000UL, 0x0000000000000064UL,
  0x0000031d00800101UL, 0x48007c00008021a1UL, 0x480200e310d00034UL, 0x0000110010200101UL,
  0x0034068010e34303UL, 0x00330000067f0000UL, 0x480a7c0000000001UL, 0x480d7c0000000000UL,
  0x0080228100000000UL, 0x0800000064000042UL, 0x64020123156000fcUL, 0x0000000000090000UL,
  0x0000a8ff0000000fUL, 0x00000000000151ffUL, 0x078403f100000000UL, 0x640c004300000001UL,
  0x2042204200000000UL, 0x00000001640b7c00UL, 0xfede0c8965000803UL, 0xfe140e3200007247UL,
  0xfec5150400000e84UL, 0xfdb20bb20000f69bUL, 0xffdc51d00000d552UL, 0xfe501d9800004886UL,
  0xfe9012730000ee76UL, 0xfe0d14e4000071c1UL, 0xff790de8000018beUL, 0xff1320ca00006599UL,
  0xfe3a0b7f0000d36fUL, 0xff8c088900001c10UL, 0xfe1b3b8a00009623UL, 0xfdfa1eb900003daeUL,
  0xfe800f310000de9aUL, 0xfd48171f000039aeUL, 0xff0a10710000a051UL, 0xff560b5c00000304UL,
  0xfeff16b30000d140UL, 0xfd7d180b00004372UL, 0xff860e6e00000681UL, 0xfe770e4d0000c72aUL,
  0xff1e442200005ae2UL, 0xfe5813590000b504UL, 0xfce34eb70000b802UL, 0xfec8169900003df8UL,
  0xfe8141090000f548UL, 0xfe8415360000d058UL, 0xfe45238200003554UL, 0xfe01255f0000505cUL,
  0xfe9110d100005058UL, 0xfc8022ba00001384UL, 0x0080224100006adcUL, 0x080000005c000042UL,
  0x5c027c0015000000UL, 0x5c07004300070000UL, 0x0000002000004000UL, 0x000000005c0c0043UL,
  0x008020c110411041UL, 0x088803002c007c00UL, 0x3430a4002c020043UL, 0x2c0500c3000070abUL,
  0x0000000000000000UL, 0x0001520000000002UL, 0x0010000000000024UL, 0x000000062c0c0042UL,
  0x2c0d004300000007UL, 0x3431f63f00000002UL, 0x000000002c110043UL, 0x0080206100000000UL,
  0x0888018420007c00UL, 0x7047dfd020020043UL, 0x200500c300000156UL, 0x0000000000000000UL,
  0x0000000000000000UL, 0x0010000000000024UL, 0x00000006200c0042UL, 0x200d004300000007UL,
  0x7047e41700000001UL, 0x0000000020110043UL, 0x0080204100000008UL, 0x000800081c007c00UL,
  0x342e00001c020123UL, 0x0020001000340034UL, 0x0000001000000680UL, 0x0001520000000002UL,
  0x0010000000000024UL, 0x000000061c0c0042UL, 0x1c0d004300000007UL, 0x342f523f00000002UL,
  0x000000001c110043UL, 0x10007c0000000000UL, 0x1000042400000002UL, 0x0000000000000064UL,
  0x4000000010007c00UL, 0x0000006410007bc4UL, 0x10007c0000000000UL, 0x10047c0000000001UL,
  0x1015004300000025UL, 0x000000070000000dUL, 0x00000029101e7c00UL, 0x0000001b10227c00UL,
  0x48007c001c002001UL, 0x5c00200110d00035UL, 0x2000200164002001UL, 0x1c007fe42c002001UL,
  0x0000000000000064UL, 0x0000000010047c00UL, 0x0000000010150043UL, 0x101e7c0000000000UL,
  0x10227c0000000000UL, 0x1c007c0000000000UL, 0x1c00042400000002UL, 0x0000000000000064UL,
  0x400000001c007c00UL, 0x000000641c007bc4UL, 0x0080004100000000UL, 0x0000000248007c00UL,
  0x0000006448000424UL, 0x48007c0000000000UL, 0x48007bc440000000UL, 0x0000000000000064UL,
  0x5c007c00008001a1UL, 0x5c00042408000002UL, 0x0000000000000064UL, 0x480000005c007c00UL,
  0x000000645c007bc4UL, 0x0080024100000000UL, 0x0800000264007c00UL, 0x0000006464000424UL,
  0x64007c0000000000UL, 0x64007bc448000000UL, 0x0000000000000064UL, 0x20007c0000800281UL,
  0x2000042400000002UL, 0x0000000000000064UL, 0x4000000020007c00UL, 0x0000006420007bc4UL,
  0x0080006100000000UL, 0x000000022c007c00UL, 0x000000642c000424UL, 0x2c007c0000000000UL,
  0x2c007bc440000000UL, 0x0000000000000064UL, 0x0000033d008000c1UL, 0x3c007c0000802141UL,
  0x3c0200e300100034UL, 0x0000115504040303UL, 0x003400d010634303UL, 0x0033000000cf0000UL,
  0x3c0a7c0000000001UL, 0x3c0d7c0000000000UL, 0x0080226100000000UL, 0x0800000060000042UL,
  0x60020123156000fcUL, 0x0000000000080000UL, 0x00002a3f00000003UL, 0x00000000000151ffUL,
  0x078403fd00000000UL, 0x600c004300000001UL, 0x2042204200000000UL, 0x00000001600b7c00UL,
  0xff7f341061000803UL, 0xff551fdf000008b1UL, 0xffa31db40000242aUL, 0xff9e247f0000c0dfUL,
  0xffb506060000eb26UL, 0xff8e0ec9000042ffUL, 0xff763ca600006c63UL, 0xff6517a00000d974UL,
  0xff4c21bb0000a177UL, 0xff6d17090000d32eUL, 0xff8d44310000a240UL, 0x00112e8b0000c04fUL,
  0xff6f1a8200008a54UL, 0xff7e2751000018b8UL, 0xffa724760000de09UL, 0xff6d14b90000817cUL,
  0xff5d224f0000d3bdUL, 0xff7444e300002c31UL, 0xff7f222f0000a175UL, 0xff584ed500007300UL,
  0xff4b2bcb00001550UL, 0xffb82cf80000d2c2UL, 0xffc108430000f4ffUL, 0xff7a1f490000e4deUL,
  0xff3e11e20000da20UL, 0xff601ff20000b580UL, 0xff7f0da40000adc2UL, 0xff732f3f0000c7bcUL,
  0xff7f0e6900004412UL, 0xff87146300002b72UL, 0xffdc0a4400007739UL, 0xff55096a0000162bUL,
  0x008022a100007d72UL, 0x0800000068000042UL, 0x68027c0015000000UL, 0x6807004300070000UL,
  0x0000002000004000UL, 0x00000000680c0043UL, 0x0080204110411041UL, 0x000800001c007c00UL,
  0x342e00001c020123UL, 0x0020000400340034UL, 0x0000000000000680UL, 0x0000000400000001UL,
  0x0010000000000024UL, 0x000000061c0c0042UL, 0x1c0d004300000007UL, 0x342f523f00000008UL,
  0x000000001c110043UL, 0x0080210100000000UL, 0x0008018434007c00UL, 0x7047a63034020043UL,
  0x340500c300000480UL, 0x0000000000000000UL, 0x0000000000000000UL, 0x0010000000000024UL,
  0x00000006340c0042UL, 0x340d004300000007UL, 0x7047aaef00000001UL, 0x0000000034110043UL,
  0x008020a100000008UL, 0x0008000828007c00UL, 0x3431f60028020123UL, 0x0020000400340034UL,
  0x0000000400000680UL, 0x0001520000000008UL, 0x0010000000000024UL, 0x00000006280c0042UL,
  0x280d004300000007UL, 0x3433483f00000008UL, 0x0000000028110043UL, 0x10007c0000000000UL,
  0x1000042400000002UL, 0x0000000000000064UL, 0x4000000010007c00UL, 0x0000006410007bc4UL,
  0x10007c0000000000UL, 0x10077c0000000001UL, 0x100c00430000002bUL, 0x0000001100000005UL,
  0x0000001510207c00UL, 0x0000002710247c00UL, 0x3c007c0028002001UL, 0x6000200100100035UL,
  0x1c00200168002001UL, 0x28007fe434002001UL, 0x0000000000000064UL, 0x0000000010077c00UL,
  0x00000000100c0043UL, 0x10207c0000000000UL, 0x10247c0000000000UL, 0x28007c0000000000UL,
  0x2800042400000002UL, 0x0000000000000064UL, 0x4000000028007c00UL, 0x0000006428007bc4UL,
  0x008000a100000000UL, 0x000000023c007c00UL, 0x000000643c000424UL, 0x3c007c0000000000UL,
  0x3c007bc440000000UL, 0x0000000000000064UL, 0x60007c0000800141UL, 0x6000042408000002UL,
  0x0000000000000064UL, 0x4800000060007c00UL, 0x0000006460007bc4UL, 0x0080026100000000UL,
  0x0800000268007c00UL, 0x0000006468000424UL, 0x68007c0000000000UL, 0x68007bc448000000UL,
  0x0000000000000064UL, 0x1c007c00008002a1UL, 0x1c00042400000002UL, 0x0000000000000064UL,
  0x400000001c007c00UL, 0x000000641c007bc4UL, 0x0080004100000000UL, 0x0000000234007c00UL,
  0x0000006434000424UL, 0x34007c0000000000UL, 0x34007bc440000000UL, 0x0000000000000064UL,
  0x0000035d00800101UL, 0x40007c0000802161UL, 0x400200e310d00034UL, 0x0000110010200101UL,
  0x0034068010e34303UL, 0x00330000067f0000UL, 0x400a7c0000000001UL, 0x400d7c0000000000UL,
  0x0080224100000000UL, 0x080000005c000042UL, 0x5c020123356000fcUL, 0x00000000000a0000UL,
  0x0000a8ff0000000fUL, 0x00000000000151ffUL, 0x078403f100000000UL, 0x5c0c006300000001UL,
  0x2042204200000000UL, 0x5c0b7c00ff80fff5UL, 0x5d00080300000001UL, 0x000012e6f92318f1UL,
  0x0000f6c3f95438b4UL, 0x00000d7cf7591cb1UL, 0x0000525af8ee29c3UL, 0x00001cc2f6a82b3aUL,
  0x0000e15ff6fa3805UL, 0x0000d294f79b2e48UL, 0x00002587f9c852d3UL, 0x00009427f8ba3624UL,
  0x00003dc8f9902e07UL, 0x00001fe6f8c51dc2UL, 0x0000d37ff7a32448UL, 0x0000e59bfbe71ed1UL,
  0x000040d0f80c2cd0UL, 0x0000d957faf12f07UL, 0x00004841f87f286cUL, 0x000005e9f8fa214aUL,
  0x00005736f8901e00UL, 0x0000e891f81237e1UL, 0x000092f8f7e82169UL, 0x000023a4f8dd277bUL,
  0x00005f0cf87b2096UL, 0x0000f0b1f859262bUL, 0x00009ee0f9542a5aUL, 0x0000afe1f7e22567UL,
  0x0000abd2fa421ebaUL, 0x000000c0f8ee2634UL, 0x000017fff8692356UL, 0x0000801ef8b320c1UL,
  0x0000a9f1fb033be1UL, 0x000045f6f8dd1d6fUL, 0x0000fc65fa65261bUL, 0x6400004200802281UL,
  0x0500016008000000UL, 0x0007180164027c00UL, 0x6338633864070043UL, 0x640c004300004000UL,
  0x1041104100000000UL, 0x6000004200802261UL, 0x1500000008000000UL, 0x0007000060027c00UL,
  0x0000400060070043UL, 0x600c004300000020UL, 0x1041104100000000UL, 0x14007c0000802001UL,
  0x1402004308880300UL, 0x000070ab3431f600UL, 0x00000000140500c3UL, 0x0000000200000000UL,
  0x0000002400015200UL, 0x140c004200100000UL, 0x0000000700000006UL, 0x00000002140d0043UL,
  0x141100433433483fUL, 0x0000000000000000UL, 0x28007c00008020a1UL, 0x2802004308880184UL,
  0x000001567047e3e0UL, 0x00000000280500c3UL, 0x0000000000000000UL, 0x0000002400000000UL,
  0x280c004200100000UL, 0x0000000700000006UL, 0x00000001280d0043UL, 0x281100437047e827UL,
  0x0000000800000000UL, 0x2c007c00008020c1UL, 0x2c02004300080100UL, 0x0000a900342f5200UL,
  0x000000002c0500c3UL, 0x000000000000a900UL, 0x0000002400000000UL, 0x2c0c004200100000UL,
  0x0000000700000006UL, 0x000000022c0d0043UL, 0x2c1100433430a43fUL, 0x0000000000000000UL,
  0x34007c0000802101UL, 0x3402004300080108UL, 0x0000a900342e0000UL, 0x00000000340500c3UL,
  0x000000000000a900UL, 0x0000002400000000UL, 0x340c004200100000UL, 0x0000000700000006UL,
  0x00000002340d0043UL, 0x34110043342f523fUL, 0x0000000000000000UL, 0x24007c0000802081UL,
  0x2402012300080008UL, 0x003400343430a400UL, 0x0000068000200010UL, 0x0000000200000010UL,
  0x0000002400015200UL, 0x240c004200100000UL, 0x0000000700000006UL, 0x00000002240d0043UL,
  0x241100433431f63fUL, 0x0000000000000000UL, 0x0000000210007c00UL, 0x0000006410000424UL,
  0x10007c0000000000UL, 0x10007bc440000000UL, 0x0000000000000064UL, 0x0000000110007c00UL,
  0x0000002710067c00UL, 0x00000029100a7c00UL, 0x00000001100f0043UL, 0x101e7c000000000bUL,
  0x10207c0000000017UL, 0x1022004300000029UL, 0x000000250000000dUL, 0x3400200124002001UL,
  0x10d0003540007c00UL, 0x600020015c002001UL, 0x1400200164002001UL, 0x2c00200128002001UL,
  0x0000006424007fe4UL, 0x34007fe400000000UL, 0x0000000000000064UL, 0x0000000010067c00UL,
  0x00000000100a7c00UL, 0x00000000100f0043UL, 0x101e7c0000000000UL, 0x10207c0000000000UL,
  0x1022004300000000UL, 0x0000000000000000UL, 0x0000000224007c00UL, 0x0000006424000424UL,
  0x24007c0000000000UL, 0x24007bc440000000UL, 0x0000000000000064UL, 0x34007c0000800081UL,
  0x3400042400000002UL, 0x0000000000000064UL, 0x4000000034007c00UL, 0x0000006434007bc4UL,
  0x0080010100000000UL, 0x0000000240007c00UL, 0x0000006440000424UL, 0x40007c0000000000UL,
  0x40007bc440000000UL, 0x0000000000000064UL, 0x5c007c0000800161UL, 0x5c00042408000002UL,
  0x0000000000000064UL, 0x480000005c007c00UL, 0x000000645c007bc4UL, 0x0080024100000000UL,
  0x0800000260007c00UL, 0x0000006460000424UL, 0x60007c0000000000UL, 0x60007bc448000000UL,
  0x0000000000000064UL, 0x64007c0000800261UL, 0x6400042408000002UL, 0x0000000000000064UL,
  0x4800000064007c00UL, 0x0000006464007bc4UL, 0x0080028100000000UL, 0x0000000214007c00UL,
  0x0000006414000424UL, 0x14007c0000000000UL, 0x14007bc440000000UL, 0x0000000000000064UL,
  0x28007c0000800001UL, 0x2800042400000002UL, 0x0000000000000064UL, 0x4000000028007c00UL,
  0x0000006428007bc4UL, 0x008000a100000000UL, 0x000000022c007c00UL, 0x000000642c000424UL,
  0x2c007c0000000000UL, 0x2c007bc440000000UL, 0x0000000000000064UL, 0x0000037d008000c1UL,
  0x44007c0000802181UL, 0x440200e310d00034UL, 0x0000110010200101UL, 0x0034068010e34404UL,
  0x00330000067f0000UL, 0x440a7c0000000001UL, 0x440d7c0000000000UL, 0x008022a100000000UL,
  0x0800000068000042UL, 0x68020123156000fcUL, 0x0000000000088000UL, 0x0000a8ff0000000fUL,
  0x00000000000151ffUL, 0x078403f100000000UL, 0x680c004300000001UL, 0x2042204200000000UL,
  0x00000001680b7c00UL, 0xfdaf446569000803UL, 0x002426930000d6e7UL, 0xff8a22700000bc8bUL,
  0xff32107800001adaUL, 0xffc125280000cdc3UL, 0xffe813fc00002c86UL, 0xffe72cbc0000f1f5UL,
  0xfeec1141000088deUL, 0x00e52737000005c4UL, 0xff8e0d9400002199UL, 0xfe7a3aed0000b5f7UL,
  0xfef8387d00003102UL, 0xff7b276100003fd0UL, 0xffc4160f0000105bUL, 0x002313d000002ddbUL,
  0xfe8e19cd0000be4cUL, 0xfee4409a00009e8aUL, 0xff3a49de0000c340UL, 0xfc903f2c00002470UL,
  0xffe007c600008862UL, 0xff8f1f13000088a1UL, 0xff4c1c250000b9aaUL, 0xfece238800007d1dUL,
  0xff2e1cb70000eafdUL, 0xfef5163900001dbdUL, 0xfefc162b0000e47bUL, 0xff58246800001795UL,
  0xfdd6236d0000defdUL, 0xffe613260000aa83UL, 0xfeb23a0700005465UL, 0xffed16ea0000b8e2UL,
  0xffd532190000945bUL, 0x0080224100004750UL, 0x080000005c000042UL, 0x5c027c0015000000UL,
  0x5c07004300070000UL, 0x0000002000004000UL, 0x000000005c0c0043UL, 0x008020e110411041UL,
  0x0888030030007c00UL, 0x3430a40030020043UL, 0x300500c3000070abUL, 0x0000000000000000UL,
  0x0001520000000002UL, 0x0010000000000024UL, 0x00000006300c0042UL, 0x300d004300000007UL,
  0x3431f63f00000002UL, 0x0000000030110043UL, 0x0080206100000000UL, 0x0888018420007c00UL,
  0x7047e7f020020043UL, 0x200500c300000156UL, 0x0000000000000000UL, 0x0000000000000000UL,
  0x0010000000000024UL, 0x00000006200c0042UL, 0x200d004300000007UL, 0x7047ec3700000001UL,
  0x0000000020110043UL, 0x0080202100000008UL, 0x0008000818007c00UL, 0x342f520018020123UL,
  0x0020001000340034UL, 0x0000001000000680UL, 0x0001520000000002UL, 0x0010000000000024UL,
  0x00000006180c0042UL, 0x180d004300000007UL, 0x3430a43f00000002UL, 0x0000000018110043UL,
  0x10007c0000000000UL, 0x1000042400000002UL, 0x0000000000000064UL, 0x4000000010007c00UL,
  0x0000006410007bc4UL, 0x10007c0000000000UL, 0x10037c0000000001UL, 0x1012004300000025UL,
  0x000000070000000fUL, 0x0000002b101e7c00UL, 0x0000001910247c00UL, 0x44007c0018002001UL,
  0x5c00200110d00035UL, 0x2000200168002001UL, 0x18007fe430002001UL, 0x0000000000000064UL,
  0x0000000010037c00UL, 0x0000000010120043UL, 0x101e7c0000000000UL, 0x10247c0000000000UL,
  0x18007c0000000000UL, 0x1800042400000002UL, 0x0000000000000064UL, 0x4000000018007c00UL,
  0x0000006418007bc4UL, 0x0080002100000000UL, 0x0000000244007c00UL, 0x0000006444000424UL,
  0x44007c0000000000UL, 0x44007bc440000000UL, 0x0000000000000064UL, 0x5c007c0000800181UL,
  0x5c00042408000002UL, 0x0000000000000064UL, 0x480000005c007c00UL, 0x000000645c007bc4UL,
  0x0080024100000000UL, 0x0800000268007c00UL, 0x0000006468000424UL, 0x68007c0000000000UL,
  0x68007bc448000000UL, 0x0000000000000064UL, 0x20007c00008002a1UL, 0x2000042400000002UL,
  0x0000000000000064UL, 0x4000000020007c00UL, 0x0000006420007bc4UL, 0x0080006100000000UL,
  0x0000000230007c00UL, 0x0000006430000424UL, 0x30007c0000000000UL, 0x30007bc440000000UL,
  0x0000000000000064UL, 0x0000039d008000e1UL, 0x48007c00008021a1UL, 0x480200e300100034UL,
  0x0000115504040303UL, 0x003400d010634303UL, 0x0033000000cf0000UL, 0x480a7c0000000001UL,
  0x480d7c0000000000UL, 0x0080226100000000UL, 0x0800000060000042UL, 0x60020123156000fcUL,
  0x0000000000080000UL, 0x00002a3f00000003UL, 0x00000000000151ffUL, 0x078403fd00000000UL,
  0x600c004300000001UL, 0x2042204200000000UL, 0x00000001600b7c00UL, 0xff7c093661000803UL,
  0xff7804ca0000b9d1UL, 0xff9918b900001098UL, 0xff8b16170000537bUL, 0xff6310c8000016a1UL,
  0xff8c0d2b0000e0c4UL, 0xfff10cc200002703UL, 0xff86208700003f76UL, 0xffb807ff0000460aUL,
  0xffdc30ff00006ffeUL, 0xff720d0300008a17UL, 0xff710ef80000791fUL, 0xffcf0b9b00008c6dUL,
  0x001711f50000d3d5UL, 0xff832a610000493cUL, 0xff880c3500005a29UL, 0xff810a350000ec6bUL,
  0xff3309800000f2caUL, 0xffbc0457000007d6UL, 0xff884ce20000efa1UL, 0xff841b960000a257UL,
  0xff8925db000060b0UL, 0xff680faa0000007fUL, 0xffb31ad700008a95UL, 0xff7725800000eba1UL,
  0xff9e13d30000520cUL, 0xff240e9e0000b269UL, 0xff7f0e8200007ffcUL, 0xffda231400001610UL,
  0xff600a0f00003aecUL, 0xff7227ed00000d04UL, 0xff7417f10000b453UL, 0x0080228100006a5aUL,
  0x0800000064000042UL, 0x64027c0015000000UL, 0x6407004300070000UL, 0x0000002000004000UL,
  0x00000000640c0043UL, 0x008020c110411041UL, 0x000800002c007c00UL, 0x342f52002c020123UL,
  0x0020000400340034UL, 0x0000000000000680UL, 0x0000000400000001UL, 0x0010000000000024UL,
  0x000000062c0c0042UL, 0x2c0d004300000007UL, 0x3430a43f00000008UL, 0x000000002c110043UL,
  0x0080204100000000UL, 0x000801841c007c00UL, 0x7047aab01c020043UL, 0x1c0500c300000480UL,
  0x0000000000000000UL, 0x0000000000000000UL, 0x0010000000000024UL, 0x000000061c0c0042UL,
  0x1c0d004300000007UL, 0x7047af6f00000001UL, 0x000000001c110043UL, 0x0080208100000008UL,
  0x0008000824007c00UL, 0x3431f60024020123UL, 0x0020000400340034UL, 0x0000000400000680UL,
  0x0001520000000008UL, 0x0010000000000024UL, 0x00000006240c0042UL, 0x240d004300000007UL,
  0x3433483f00000008UL, 0x0000000024110043UL, 0x10007c0000000000UL, 0x1000042400000002UL,
  0x0000000000000064UL, 0x4000000010007c00UL, 0x0000006410007bc4UL, 0x10007c0000000000UL,
  0x10067c0000000001UL, 0x1015004300000029UL, 0x000000050000000dUL, 0x0000001b10207c00UL,
  0x0000002710227c00UL, 0x48007c0024002001UL, 0x6000200100100035UL, 0x1c00200164002001UL,
  0x24007fe42c002001UL, 0x0000000000000064UL, 0x0000000010067c00UL, 0x0000000010150043UL,
  0x10207c0000000000UL, 0x10227c0000000000UL, 0x24007c0000000000UL, 0x2400042400000002UL,
  0x0000000000000064UL, 0x4000000024007c00UL, 0x0000006424007bc4UL, 0x0080008100000000UL,
  0x0000000248007c00UL, 0x0000006448000424UL, 0x48007c0000000000UL, 0x48007bc440000000UL,
  0x0000000000000064UL, 0x60007c00008001a1UL, 0x6000042408000002UL, 0x0000000000000064UL,
  0x4800000060007c00UL, 0x0000006460007bc4UL, 0x0080026100000000UL, 0x0800000264007c00UL,
  0x0000006464000424UL, 0x64007c0000000000UL, 0x64007bc448000000UL, 0x0000000000000064UL,
  0x1c007c0000800281UL, 0x1c00042400000002UL, 0x0000000000000064UL, 0x400000001c007c00UL,
  0x000000641c007bc4UL, 0x0080004100000000UL, 0x000000022c007c00UL, 0x000000642c000424UL,
  0x2c007c0000000000UL, 0x2c007bc440000000UL, 0x0000000000000064UL, 0x000003bd008000c1UL,
  0x3c007c0000802141UL, 0x3c0200e310d00034UL, 0x0000110010200101UL, 0x0034068010e34404UL,
  0x00330000067f0000UL, 0x3c0a7c0000000001UL, 0x3c0d7c0000000000UL, 0x0080224100000000UL,
  0x080000005c000042UL, 0x5c020123356000fcUL, 0x0000000000098000UL, 0x0000a8ff0000000fUL,
  0x00000000000151ffUL, 0x078403f100000000UL, 0x5c0c006300000001UL, 0x2042204200000000UL,
  0x5c0b7c00ff80ffd8UL, 0x5d00080300000001UL, 0x0000c1cefc3552cfUL, 0x00002e4cfb9b3b3fUL,
  0x000025c8fbbe23feUL, 0x00007e34fbcf209cUL, 0x000051abfc2f191dUL, 0x00009eecfc1722b4UL,
  0x0000e90ffc7c2ebfUL, 0x0000ae1efad816dbUL, 0x0000f984fc7a12b7UL, 0x00002f03fca9367bUL,
  0x0000a4c7fc551f93UL, 0x0000aedafb452175UL, 0x000041a9fc291a62UL, 0x00006cc0fbc3276cUL,
  0x00009ceefc313460UL, 0x00009082fb82436fUL, 0x0000249bfc5522e0UL, 0x00007115fc4f4d5dUL,
  0x00007c8efc6e2008UL, 0x0000bf90fbd920f5UL, 0x00003c69fba91e0cUL, 0x00001b01fcd01543UL,
  0x00000fe1fb8526d0UL, 0x00000c88fb9a330bUL, 0x0000ce42fbc811a6UL, 0x0000f696fcad23eeUL,
  0x0000fc40fbe915a9UL, 0x0000c3affcca2d9eUL, 0x0000f483fc252bd8UL, 0x0000f993fb7a2d05UL,
  0x0000cf30fb4e5620UL, 0x00002da3fbe825fbUL, 0x68000042008022a1UL, 0x0500016008000000UL,
  0x0007180168027c00UL, 0x60c360c368070043UL, 0x680c004300004000UL, 0x1041104100000000UL,
  0x6000004200802261UL, 0x1500000008000000UL, 0x0007000060027c00UL, 0x0000400060070043UL,
  0x600c004300000020UL, 0x1041104100000000UL, 0x2c007c00008020c1UL, 0x2c02004308880300UL,
  0x000070ab3431f600UL, 0x000000002c0500c3UL, 0x0000000200000000UL, 0x0000002400015200UL,
  0x2c0c004200100000UL, 0x0000000700000006UL, 0x000000022c0d0043UL, 0x2c1100433433483fUL,
  0x0000000000000000UL, 0x38007c0000802121UL, 0x3802004308880184UL, 0x000001567047ec00UL,
  0x00000000380500c3UL, 0x0000000000000000UL, 0x0000002400000000UL, 0x380c004200100000UL,
  0x0000000700000006UL, 0x00000001380d0043UL, 0x381100437047f047UL, 0x0000000800000000UL,
  0x24007c0000802081UL, 0x2402004300080100UL, 0x0000a900342e0000UL, 0x00000000240500c3UL,
  0x000000000000a900UL, 0x0000002400000000UL, 0x240c004200100000UL, 0x0000000700000006UL,
  0x00000002240d0043UL, 0x24110043342f523fUL, 0x0000000000000000UL, 0x20007c0000802061UL,
  0x2002004300080108UL, 0x0000a900342f5200UL, 0x00000000200500c3UL, 0x000000000000a900UL,
  0x0000002400000000UL, 0x200c004200100000UL, 0x0000000700000006UL, 0x00000002200d0043UL,
  0x201100433430a43fUL, 0x0000000000000000UL, 0x14007c0000802001UL, 0x1402012300080008UL,
  0x003400343430a400UL, 0x0000068000200010UL, 0x0000000200000010UL, 0x0000002400015200UL,
  0x140c004200100000UL, 0x0000000700000006UL, 0x00000002140d0043UL, 0x141100433431f63fUL,
  0x0000000000000000UL, 0x0000000210007c00UL, 0x0000006410000424UL, 0x10007c0000000000UL,
  0x10007bc440000000UL, 0x0000000000000064UL, 0x0000000110007c00UL, 0x0000002710027c00UL,
  0x0000002b10057c00UL, 0x0000000d100c0043UL, 0x101e7c0000000013UL, 0x10207c0000000015UL,
  0x102400430000002bUL, 0x0000002500000009UL, 0x2000200114002001UL, 0x10d000353c007c00UL,
  0x600020015c002001UL, 0x2400200168002001UL, 0x380020012c002001UL, 0x0000006414007fe4UL,
  0x20007fe400000000UL, 0x0000000000000064UL, 0x0000000010027c00UL, 0x0000000010057c00UL,
  0x00000000100c0043UL, 0x101e7c0000000000UL, 0x10207c0000000000UL, 0x1024004300000000UL,
  0x0000000000000000UL, 0x0000000214007c00UL, 0x0000006414000424UL, 0x14007c0000000000UL,
  0x14007bc440000000UL, 0x0000000000000064UL, 0x20007c0000800001UL, 0x2000042400000002UL,
  0x0000000000000064UL, 0x4000000020007c00UL, 0x0000006420007bc4UL, 0x0080006100000000UL,
  0x000000023c007c00UL, 0x000000643c000424UL, 0x3c007c0000000000UL, 0x3c007bc440000000UL,
  0x0000000000000064UL, 0x5c007c0000800141UL, 0x5c00042408000002UL, 0x0000000000000064UL,
  0x480000005c007c00UL, 0x000000645c007bc4UL, 0x0080024100000000UL, 0x0800000260007c00UL,
  0x0000006460000424UL, 0x60007c0000000000UL, 0x60007bc448000000UL, 0x0000000000000064UL,
  0x68007c0000800261UL, 0x6800042408000002UL, 0x0000000000000064UL, 0x4800000068007c00UL,
  0x0000006468007bc4UL, 0x008002a100000000UL, 0x0000000224007c00UL, 0x0000006424000424UL,
  0x24007c0000000000UL, 0x24007bc440000000UL, 0x0000000000000064UL, 0x2c007c0000800081UL,
  0x2c00042400000002UL, 0x0000000000000064UL, 0x400000002c007c00UL, 0x000000642c007bc4UL,
  0x008000c100000000UL, 0x0000000238007c00UL, 0x0000006438000424UL, 0x38007c0000000000UL,
  0x38007bc440000000UL, 0x0000000000000064UL, 0x000003dd00800121UL, 0x40007c0000802161UL,
  0x400200e310d00034UL, 0x0000110010200101UL, 0x0034068010e34303UL, 0x00330000067f0000UL,
  0x400a7c0000000001UL, 0x400d7c0000000000UL, 0x0080228100000000UL, 0x0800000064000042UL,
  0x64020123156000fcUL, 0x0000000000090000UL, 0x0000a8ff0000000fUL, 0x00000000000151ffUL,
  0x078403f100000000UL, 0x640c004300000001UL, 0x2042204200000000UL, 0x00000001640b7c00UL,
  0xffcb70c265000803UL, 0xfe201fd40000c866UL, 0xfcff29c70000cb0dUL, 0x00be31a200002088UL,
  0xfc95282d0000bb62UL, 0xfd341d640000b7eeUL, 0xffe5247400005b31UL, 0xff130f2d0000f25dUL,
  0xff9712690000a899UL, 0xfd1c16cd00000ddeUL, 0xfd44262b00007871UL, 0xfccb21d90000fb57UL,
  0xfe8d1a5200006f4eUL, 0xfd622cd600003bd2UL, 0xfe781e840000cffaUL, 0xfe7b554700000d8eUL,
  0xfecd29ae00007699UL, 0xfe9917180000befaUL, 0xff6a1cb60000dbffUL, 0xfd98137100007504UL,
  0xfffa195c00001c14UL, 0xfe4d30220000c3e9UL, 0xfd4b2f8f0000b825UL, 0xfeaf224500003ef9UL,
  0xfca149c10000aeafUL, 0xfe3f1faf00007b22UL, 0x035246fc000095a9UL, 0xff9d159d0000ab70UL,
  0xfee7119e0000f131UL, 0xfe6a38540000d402UL, 0xff5839c000006977UL, 0xfb472b6e0000139fUL,
  0x008022410000c05bUL, 0x080000005c000042UL, 0x5c027c0015000000UL, 0x5c07004300070000UL,
  0x0000002000004000UL, 0x000000005c0c0043UL, 0x0080204110411041UL, 0x088803001c007c00UL,
  0x3430a4001c020043UL, 0x1c0500c3000070abUL, 0x0000000000000000UL, 0x0001520000000002UL,
  0x0010000000000024UL, 0x000000061c0c0042UL, 0x1c0d004300000007UL, 0x3431f63f00000002UL,
  0x000000001c110043UL, 0x008020a100000000UL, 0x0888018428007c00UL, 0x7047f01028020043UL,
  0x280500c300000156UL, 0x0000000000000000UL, 0x0000000000000000UL, 0x0010000000000024UL,
  0x00000006280c0042UL, 0x280d004300000007UL, 0x7047f45700000001UL, 0x0000000028110043UL,
  0x008020e100000008UL, 0x0008000830007c00UL, 0x342e000030020123UL, 0x0020001000340034UL,
  0x0000001000000680UL, 0x0001520000000002UL, 0x0010000000000024UL, 0x00000006300c0042UL,
  0x300d004300000007UL, 0x342f523f00000002UL, 0x0000000030110043UL, 0x10007c0000000000UL,
