/**
  ******************************************************************************
  * @file    network_ecblobs.h
  * @brief   NN Code autogenerated DO NOT MODIFY IT
  ******************************************************************************
  * @attention
  *
  * Copyright (c) 2024 STMicroelectronics.
  * All rights reserved.
  *
  * This software is licensed under terms that can be found in the LICENSE file
  * in the root directory of this software component.
  * If no LICENSE file comes with this software, it is provided AS-IS.
  *
  ******************************************************************************
  */


#ifdef __cplusplus
extern "C" {
#endif

#include "ll_aton_caches_interface.h"

#include <string.h>

#if !defined(ECBLOB_CONST_SECTION)
#define ECBLOB_CONST_SECTION /* Empty */
#endif
#if !defined(ECBLOB_RUNTIME_SECTION)
#define ECBLOB_RUNTIME_SECTION /* Empty */
#endif

ECBLOB_CONST_SECTION
// aligned to the cache line size (equal to 64 bytes)
__attribute__((aligned(64)))
static const uint64_t _ec_blob_network_1[4224] =
{
  0x000020f3ca057a7aUL, 0x0000005d0000003dUL, 0x5c00004200802241UL, 0x1500006008000000UL,
  0x000700005c027c00UL, 0x000040005c070043UL, 0x5c0c00430000ffe0UL, 0x1041204200000000UL,
  0x6000004200802261UL, 0x1500000008000000UL, 0x0007000060027c00UL, 0x0000400060070043UL,
  0x600c004300000020UL, 0x1041104100000000UL, 0x2c007c00008020c1UL, 0x2c02004300080104UL,
  0x0007ec0034100000UL, 0x000000002c0500c3UL, 0x000000000007ec00UL, 0x0000002400000000UL,
  0x2c0c004200100000UL, 0x0000000700000006UL, 0x000000012c0d0043UL, 0x2c1100433417ec3fUL,
  0x0000000000000000UL, 0x18007c0000802021UL, 0x180200430008010cUL, 0x0007ec0090000000UL,
  0x00000000180500c3UL, 0x000000000007ec00UL, 0x0000002400000000UL, 0x180c004200100000UL,
  0x0000000700000006UL, 0x00000001180d0043UL, 0x181100439007ec3fUL, 0x0000000800000000UL,
  0x0000000210007c00UL, 0x0000006410000424UL, 0x10007c0000000000UL, 0x10007bc440000000UL,
  0x0000000000000064UL, 0x0000000110007c00UL, 0x0000002710037c00UL, 0x0000000d101e7c00UL,
  0x0000002510207c00UL, 0x5c00200118002001UL, 0x2c00200160002001UL, 0x0000006418007fe4UL,
  0x10037c0000000000UL, 0x101e7c0000000000UL, 0x10207c0000000000UL, 0x18007c0000000000UL,
  0x1800042400000002UL, 0x0000000000000064UL, 0x4000000018007c00UL, 0x0000006418007bc4UL,
  0x0080002100000000UL, 0x080000025c007c00UL, 0x000000645c000424UL, 0x5c007c0000000000UL,
  0x5c007bc448000000UL, 0x0000000000000064UL, 0x60007c0000800241UL, 0x6000042408000002UL,
  0x0000000000000064UL, 0x4800000060007c00UL, 0x0000006460007bc4UL, 0x0080026100000000UL,
  0x000000022c007c00UL, 0x000000642c000424UL, 0x2c007c0000000000UL, 0x2c007bc440000000UL,
  0x0000000000000064UL, 0x0000007d008000c1UL, 0x3c007c0000802141UL, 0x3c0200e300100034UL,
  0x0000115508030303UL, 0x01a004e010634202UL, 0x019f000004df0000UL, 0x3c0a7c0000000001UL,
  0x3c0d7c0000000000UL, 0x0080228100000000UL, 0x0800000064000042UL, 0x64020123156000fcUL,
  0x00000000000b0000UL, 0x00151fff00000007UL, 0x00000000002a3fffUL, 0x07c403f900000000UL,
  0x640c004300000001UL, 0x2042204200000000UL, 0x00000001640b7c00UL, 0x02b00e9565000403UL,
  0xfab534cd00001332UL, 0x011706c60000d81aUL, 0x017f0d6c00005897UL, 0xff752af40000d3e4UL,
  0x021476340000a27aUL, 0xff01378a0000f9efUL, 0x02861c4200005e61UL, 0x010241b80000ccb2UL,
  0x01bd209a0000738bUL, 0x01b8227e00007242UL, 0x01d6234d00008da4UL, 0x01b40a5f00001889UL,
  0x01192ba200004e6bUL, 0x01ea28280000bc47UL, 0x01d80f150000809bUL, 0x008022010000747cUL,
  0x0174104c54007c00UL, 0x00087f8054020043UL, 0x55000403029011cfUL, 0x0000000000000000UL,
  0x0000000000000000UL, 0x0000000000000000UL, 0x0000000000000000UL, 0x0000000000000000UL,
  0x0000000000000000UL, 0x0000000000000000UL, 0x0000000000000000UL, 0x00000009000000c1UL,
  0x0000000900000009UL, 0x0000000900000009UL, 0x0000000900000009UL, 0x0000000900000009UL,
  0x0000000900000009UL, 0x0000000900000009UL, 0x000000ca00000009UL, 0x1603000056000483UL,
  0x000000000000ac48UL, 0x000000000000ac00UL, 0x000000000000ad00UL, 0x000000000000ad00UL,
  0x000000000000ad00UL, 0x000000000000ae00UL, 0x000000000000ae00UL, 0x000000000000b000UL,
  0x6e0e00000000b100UL, 0x000000000000a567UL, 0x0000000000007400UL, 0x0000000000007500UL,
  0x0000000000007700UL, 0x0000000000007900UL, 0x0000000000007b00UL, 0x0000000000007c00UL,
  0x0000000000007e00UL, 0x0080212100007f00UL, 0x0008010038007c00UL, 0x9000000038020043UL,
  0x380500c30007ec00UL, 0x0007ec0000000000UL, 0x0000000000000001UL, 0x0010000000000024UL,
  0x00000006380c0042UL, 0x380d004300000007UL, 0x9007ec3f00000002UL, 0x0000000038110043UL,
  0x008020c100000008UL, 0x000801842c007c00UL, 0x70e108002c020043UL, 0x2c0500c3000001b0UL,
  0x0000000000000000UL, 0x0000000000000000UL, 0x0010000000000024UL, 0x000000062c0c0042UL,
  0x2c0d004300000007UL, 0x70e109ef00000001UL, 0x000000002c110043UL, 0x0080202100000008UL,
  0x0008000818007c00UL, 0x3410000018020123UL, 0x0010000801a001a0UL, 0x0000000800001a00UL,
  0x002a400000000002UL, 0x0010000000000024UL, 0x00000006180c0042UL, 0x180d004300000007UL,
  0x343a403f00000002UL, 0x0000000018110043UL, 0x10007c0000000000UL, 0x1000042400000002UL,
  0x0000000000000064UL, 0x4000000010007c00UL, 0x0000006410007bc4UL, 0x10007c0000000000UL,
  0x10037c0000000001UL, 0x100c004300000021UL, 0x0000000d00000013UL, 0x00000029101c7c00UL,
  0x0000001510227c00UL, 0x3c007c0018002001UL, 0x5400200100100035UL, 0x2c00200164002001UL,
  0x18007fe438002001UL, 0x0000000000000064UL, 0x0000000010037c00UL, 0x00000000100c0043UL,
  0x101c7c0000000000UL, 0x10227c0000000000UL, 0x18007c0000000000UL, 0x1800042400000002UL,
  0x0000000000000064UL, 0x4000000018007c00UL, 0x0000006418007bc4UL, 0x0080002100000000UL,
  0x000000023c007c00UL, 0x000000643c000424UL, 0x3c007c0000000000UL, 0x3c007bc440000000UL,
  0x0000000000000064UL, 0x54007c0000800141UL, 0x5400042400881082UL, 0x0000000000000064UL,
  0x4088108054007c00UL, 0x0000006454007bc4UL, 0x0080020100000000UL, 0x0800000264007c00UL,
  0x0000006464000424UL, 0x64007c0000000000UL, 0x64007bc448000000UL, 0x0000000000000064UL,
  0x2c007c0000800281UL, 0x2c00042400000002UL, 0x0000000000000064UL, 0x400000002c007c00UL,
  0x000000642c007bc4UL, 0x008000c100000000UL, 0x0000000238007c00UL, 0x0000006438000424UL,
  0x38007c0000000000UL, 0x38007bc440000000UL, 0x0000000000000064UL, 0x0000009d00800121UL,
  0x6c007c00008022c1UL, 0x6c0200e30041c0c0UL, 0x01a0068010000892UL, 0x0000000000d000d0UL,
  0x019f0000067f0000UL, 0x008020a100050001UL, 0x0008000028007c00UL, 0x3410000028020123UL,
  0x0010000401a001a0UL, 0x0000000400001a00UL, 0x002a400000000004UL, 0x0010000000000024UL,
  0x00000006280c0042UL, 0x280d004300000007UL, 0x343a403f00000004UL, 0x0000000028110043UL,
  0x0080206100000000UL, 0x0008010820007c00UL, 0x9000000020020043UL, 0x200500c30002a400UL,
  0x0002a40000000000UL, 0x0000000000000000UL, 0x0010000000000024UL, 0x00000006200c0042UL,
  0x200d004300000007UL, 0x900a903f00000004UL, 0x0000000020110043UL, 0x10007c0000000008UL,
  0x1000042400000002UL, 0x0000000000000064UL, 0x4000000010007c00UL, 0x0000006410007bc4UL,
  0x10007c0000000000UL, 0x10057c0000000001UL, 0x10267c000000002dUL, 0x200020010000000bUL,
  0x280020016c002001UL, 0x0000006420007fe4UL, 0x10057c0000000000UL, 0x10267c0000000000UL,
  0x20007c0000000000UL, 0x2000042400000002UL, 0x0000000000000064UL, 0x4000000020007c00UL,
  0x0000006420007bc4UL, 0x0080006100000000UL, 0x004200026c007c00UL, 0x000000646c000424UL,
  0x6c007c0000000000UL, 0x6c007bc440420000UL, 0x0000000000000064UL, 0x28007c00008002c1UL,
  0x2800042400000002UL, 0x0000000000000064UL, 0x4000000028007c00UL, 0x0000006428007bc4UL,
  0x008000a100000000UL, 0x00802161000000bdUL, 0x0000005440007c00UL, 0x04040303400200e3UL,
  0x10b7400400001155UL, 0x033f000000d00340UL, 0x0003001000cf0000UL, 0x00000000400a7c00UL,
  0x00ffffae400c0043UL, 0x0080218100000000UL, 0x0000004044007c00UL, 0x04040303440200e3UL,
  0x10b7400000001155UL, 0x033f000000d00340UL, 0x0007041000cf0000UL, 0x00000000440a7c00UL,
  0x00ffffae440c0043UL, 0x008021a100000000UL, 0x0000004048007c00UL, 0x04040303480200e3UL,
  0x10b7400000001155UL, 0x033f000000d00340UL, 0x000b081000cf0000UL, 0x00000000480a7c00UL,
  0x00ffffae480c0043UL, 0x0080214100000000UL, 0x000000403c007c00UL, 0x040403033c0200e3UL,
  0x10a3440000001155UL, 0x033f000000d00340UL, 0x000f0c1000cf0000UL, 0x000000003c0a7c00UL,
  0x00ffffae3c0c0043UL, 0x008022a100000000UL, 0x0800000068000042UL, 0x68020123156000fcUL,
  0x0000000000098000UL, 0x0002a3ff00000003UL, 0x0000000000151fffUL, 0x078403fd00000000UL,
  0x680c004300000001UL, 0x2042204200000000UL, 0x00000001680b7c00UL, 0x01b81cd469000803UL,
  0x01e729cd00005359UL, 0x01d0384f00000b69UL, 0x01d73b560000ec07UL, 0x01cc3da800008ecbUL,
  0x01d3526500004a46UL, 0x020817c300009b63UL, 0x01fe27e400005f5dUL, 0x01ce2b7000005a91UL,
  0x01ca152d0000c40eUL, 0x01d73cd50000f7bbUL, 0x01c7078d0000e073UL, 0x01aa08530000056aUL,
  0x01d236280000ec0fUL, 0x01e643960000e19cUL, 0x01d4203e00003633UL, 0x01d54ae800009237UL,
  0x01f32554000038ceUL, 0x01d114b90000118aUL, 0x01e3441b000045e7UL, 0x01cb0d1a000022d8UL,
  0x01f05c6a0000db9fUL, 0x01d8343b0000574bUL, 0x01db1b3700001453UL, 0x01ce395a000064edUL,
  0x01db4149000045d9UL, 0x01ec4e0d00007a0aUL, 0x01d533170000434dUL, 0x01d6253f0000d51fUL,
  0x01d82104000069d8UL, 0x01cb2ce00000882fUL, 0x01d7319200009d90UL, 0x008022210000e3e3UL,
  0x0174104c58007c00UL, 0x00087f8058020043UL, 0x590004030290220fUL, 0x00000008000000c0UL,
  0x0000000800000008UL, 0x0000000800000008UL, 0x0000000800000008UL, 0x0000000800000008UL,
  0x0000000800000008UL, 0x0000000800000008UL, 0x0000000800000008UL, 0x0000000800000008UL,
  0x0000000800000008UL, 0x0000000800000008UL, 0x000000c900000008UL, 0x0000001100000011UL,
  0x0000001100000011UL, 0x0000001100000011UL, 0x000000d200000011UL, 0x000000005a000683UL,
  0x000000000000c000UL, 0x000000000000c000UL, 0x000000000000c080UL, 0x000000000000c080UL,
  0x000000000000c100UL, 0x000000000000c100UL, 0x000000000000c180UL, 0x0f3b00000000c180UL,
  0x000000000000de70UL, 0x000000000000ec00UL, 0x000000000000ec00UL, 0x000000000000ed00UL,
  0x000000000000ee80UL, 0x000000000000ef80UL, 0x000000000000f100UL, 0x000000000000f200UL,
  0x4c2600000000f300UL, 0x000000000000a82eUL, 0x0000000000003700UL, 0x0000000000003800UL,
  0x0000000000003980UL, 0x0000000000003a80UL, 0x0000000000003b80UL, 0x0000000000003d00UL,
  0x0000000000003e00UL, 0x008022e100003f80UL, 0x0041c0c070007c00UL, 0x10000892700200e3UL,
  0x0068006800d00340UL, 0x033f000000000000UL, 0x0005000100cf0000UL, 0x24007c0000802081UL,
  0x240200430008c100UL, 0x0002a40090000000UL, 0x00000000240500c3UL, 0x00000001000a9000UL,
  0x0000002400000000UL, 0x240c004200100000UL, 0x0000000700000006UL, 0x00000008240d0043UL,
  0x24110043900a903fUL, 0x0000000800000000UL, 0x38007c0000802121UL, 0x380200430008c184UL,
  0x0000120070e0f400UL, 0x00000000380500c3UL, 0x0000000000000000UL, 0x0000002400000000UL,
  0x380c004200100000UL, 0x0000000700000006UL, 0x00000001380d0043UL, 0x3811004370e1063fUL,
  0x0000000800000000UL, 0x28007c00008020a1UL, 0x280200430008c100UL, 0x0002a4009002a400UL,
  0x00000000280500c3UL, 0x00000001000a9000UL, 0x0000002400000000UL, 0x280c004200100000UL,
  0x0000000700000006UL, 0x00000008280d0043UL, 0x28110043900a903fUL, 0x0000000800000000UL,
  0x1c007c0000802041UL, 0x1c0200430008c100UL, 0x0002a40090054800UL, 0x000000001c0500c3UL,
  0x00000001000a9000UL, 0x0000002400000000UL, 0x1c0c004200100000UL, 0x0000000700000006UL,
  0x000000081c0d0043UL, 0x1c110043900a903fUL, 0x0000000800000000UL, 0x30007c00008020e1UL,
  0x300200430008c100UL, 0x0002a4009007ec00UL, 0x00000000300500c3UL, 0x00000001000a9000UL,
  0x0000002400000000UL, 0x300c004200100000UL, 0x0000000700000006UL, 0x00000008300d0043UL,
  0x30110043900a903fUL, 0x0000000800000000UL, 0x20007c0000802061UL, 0x2002012300080008UL,
  0x00680068342e0000UL, 0x00000d0000200004UL, 0x0000000800000004UL, 0x0000002400054800UL,
  0x200c004200100000UL, 0x0000000700000006UL, 0x00000008200d0043UL, 0x201100433433483fUL,
  0x0000000000000000UL, 0x0000000210007c00UL, 0x0000006410000424UL, 0x10007c0000000000UL,
  0x10007bc440000000UL, 0x0000000000000064UL, 0x0000000110007c00UL, 0x0000002f10057c00UL,
  0x0000000f100c00a3UL, 0x0000001b00000013UL, 0x0000001300000009UL, 0x0000000b101200c3UL,
  0x0000001700000013UL, 0x0000001300000005UL, 0x101d7c0000000019UL, 0x10247c000000002bUL,
  0x10277c0000000015UL, 0x2000200100000023UL, 0x000000413c007c00UL, 0x0000005540007c00UL,
  0x0000004144007c00UL, 0x0000004148007c00UL, 0x6800200158002001UL, 0x1c00200170002001UL,
  0x2800200124002001UL, 0x3800200130002001UL, 0x0000006420007fe4UL, 0x10057c0000000000UL,
  0x100c00a300000000UL, 0x0000000000000000UL, 0x0000000000000000UL, 0x101200c300000000UL,
  0x0000000000000000UL, 0x0000000000000000UL, 0x0000000000000000UL, 0x00000000101d7c00UL,
  0x0000000010247c00UL, 0x0000000010277c00UL, 0x0000000220007c00UL, 0x0000006420000424UL,
  0x20007c0000000000UL, 0x20007bc440000000UL, 0x0000000000000064UL, 0x3c007c0000800061UL,
  0x3c00042400000002UL, 0x0000000000000064UL, 0x400000003c007c00UL, 0x000000643c007bc4UL,
  0x0080014100000000UL, 0x0000000240007c00UL, 0x0000006440000424UL, 0x40007c0000000000UL,
  0x40007bc440000000UL, 0x0000000000000064UL, 0x44007c0000800161UL, 0x4400042400000002UL,
  0x0000000000000064UL, 0x4000000044007c00UL, 0x0000006444007bc4UL, 0x0080018100000000UL,
  0x0000000248007c00UL, 0x0000006448000424UL, 0x48007c0000000000UL, 0x48007bc440000000UL,
  0x0000000000000064UL, 0x58007c00008001a1UL, 0x5800042400881082UL, 0x0000000000000064UL,
  0x4088108058007c00UL, 0x0000006458007bc4UL, 0x0080022100000000UL, 0x0800000268007c00UL,
  0x0000006468000424UL, 0x68007c0000000000UL, 0x68007bc448000000UL, 0x0000000000000064UL,
  0x70007c00008002a1UL, 0x7000042400420002UL, 0x0000000000000064UL, 0x4042000070007c00UL,
  0x0000006470007bc4UL, 0x008002e100000000UL, 0x000000021c007c00UL, 0x000000641c000424UL,
  0x1c007c0000000000UL, 0x1c007bc440000000UL, 0x0000000000000064UL, 0x24007c0000800041UL,
  0x2400042400000002UL, 0x0000000000000064UL, 0x4000000024007c00UL, 0x0000006424007bc4UL,
  0x0080008100000000UL, 0x0000000228007c00UL, 0x0000006428000424UL, 0x28007c0000000000UL,
  0x28007bc440000000UL, 0x0000000000000064UL, 0x30007c00008000a1UL, 0x3000042400000002UL,
  0x0000000000000064UL, 0x4000000030007c00UL, 0x0000006430007bc4UL, 0x008000e100000000UL,
  0x0000000238007c00UL, 0x0000006438000424UL, 0x38007c0000000000UL, 0x38007bc440000000UL,
  0x0000000000000064UL, 0x000000dd00800121UL, 0x3c007c0000802141UL, 0x3c0200e300000054UL,
  0x0000115504080303UL, 0x0068034010b74005UL, 0x00670000033f0000UL, 0x3c0a7c0000030010UL,
  0x3c0c004300000000UL, 0x0000000000ffffd8UL, 0x40007c0000802161UL, 0x400200e300000040UL,
  0x0000115504080303UL, 0x0068034010b74000UL, 0x00670000033f0000UL, 0x400a7c0000070410UL,
  0x400c004300000000UL, 0x0000000000ffffd8UL, 0x44007c0000802181UL, 0x440200e300000040UL,
  0x0000115504080303UL, 0x0068034010b74000UL, 0x00670000033f0000UL, 0x440a7c00000b0810UL,
  0x440c004300000000UL, 0x0000000000ffffd8UL, 0x48007c00008021a1UL, 0x480200e300000040UL,
  0x0000115504080303UL, 0x0068034010a34500UL, 0x00670000033f0000UL, 0x480a7c00000f0c10UL,
  0x480c004300000000UL, 0x0000000000ffffd8UL, 0x5c00004200802241UL, 0x156000fc08000000UL,
  0x000900005c020123UL, 0x0000000300000000UL, 0x000a8fff0000a8ffUL, 0x0000000000000000UL,
  0x00000001070403fdUL, 0x000000005c0c0043UL, 0x5c0b7c0020422042UL, 0x5d00100300000001UL,
  0x0000d92500ef3b7bUL, 0x000070aa00ee20eeUL, 0x0000161e00f428feUL, 0x0000c231010715caUL,
  0x00008c4300ed1dc4UL, 0x00001ee700f12058UL, 0x00006e8c00e524e1UL, 0x0000c1ce00f72a0aUL,
  0x0000b0f600ee2480UL, 0x00006c540101197cUL, 0x0000378b00ea20c0UL, 0x0000b47900f73ed6UL,
  0x0000c49a01242cefUL, 0x0000856400f035c1UL, 0x0000edf900eb735aUL, 0x0000b8a600fd13c9UL,
  0x0000d57d00ed3ab0UL, 0x0000251f011231d9UL, 0x0000a74b00e5221dUL, 0x0000415100e728f5UL,
  0x0000c14200ee2d98UL, 0x0000920e00ea1332UL, 0x00003c8600d229e7UL, 0x0000f87400f44ad5UL,
  0x0000d72900db272dUL, 0x0000d51b00f30f69UL, 0x0000e9b200f42808UL, 0x0000070e00fc4553UL,
  0x000003a801083cc3UL, 0x0000cc5301121d2eUL, 0x00002c1200eb1c9dUL, 0x00005f4400f217deUL,
  0x0000964300eb340eUL, 0x0000fd1700f41f34UL, 0x000024fd00e7315aUL, 0x000041c700c11859UL,
  0x0000f55d00ee2758UL, 0x0000ed2a00ee205aUL, 0x00000e5500f82735UL, 0x0000f29a00e819b3UL,
  0x00006e7300ec2ba3UL, 0x0000f6ad00ea0af5UL, 0x0000e88b00f4545eUL, 0x0000fbea00ec1ee3UL,
  0x0000dd7e00e94088UL, 0x0000a46500f42552UL, 0x0000d76d00f34431UL, 0x0000d1ee00ef259dUL,
  0x00004a4900fb0c9eUL, 0x000086a800ec1aeeUL, 0x0000fefe00e926cfUL, 0x0000f87300ed64e4UL,
  0x0000734900f829c9UL, 0x0000110400e92469UL, 0x000029cf00e92fb8UL, 0x000033ca00ee1fb5UL,
  0x000054f400e93b65UL, 0x0000fc9700f84aa8UL, 0x000013ab00e92763UL, 0x0000f61b00f234e7UL,
  0x0000911000e63286UL, 0x00002d1000d122e3UL, 0x0000e7dc00e91f32UL, 0x0000e26700ea14deUL,
  0x54007c0000802201UL, 0x540200430174104cUL, 0x0290220f00087f80UL, 0x000000c055000403UL,
  0x0000000800000008UL, 0x0000000800000008UL, 0x0000000800000008UL, 0x0000000800000008UL,
  0x0000000800000008UL, 0x0000000800000008UL, 0x0000000800000008UL, 0x0000000800000008UL,
  0x0000000800000008UL, 0x0000000800000008UL, 0x0000000800000008UL, 0x00000011000000c9UL,
  0x0000001100000011UL, 0x0000001100000011UL, 0x0000001100000011UL, 0x56000683000000d2UL,
  0x0000c00000000000UL, 0x0000c00000000000UL, 0x0000c08000000000UL, 0x0000c08000000000UL,
  0x0000c10000000000UL, 0x0000c10000000000UL, 0x0000c18000000000UL, 0x0000c18000000000UL,
  0x0000dec00f750000UL, 0x0000ec8000000000UL, 0x0000ec8000000000UL, 0x0000ed0000000000UL,
  0x0000ed0000000000UL, 0x0000ee0000000000UL, 0x0000ef8000000000UL, 0x0000f08000000000UL,
  0x0000f20000000000UL, 0x0000a5c04d4a0000UL, 0x0000368000000000UL, 0x0000380000000000UL,
  0x0000390000000000UL, 0x00003a8000000000UL, 0x00003b8000000000UL, 0x00003c8000000000UL,
  0x00003e0000000000UL, 0x00003f0000000000UL, 0x6c007c00008022c1UL, 0x6c0200e30041c0c0UL,
  0x006801a010000892UL, 0x0000000000340034UL, 0x00670000019f0000UL, 0x0080206100050001UL,
  0x0008c00020007c00UL, 0x342e000020020123UL, 0x0020000800680068UL, 0x0000002000000d00UL,
  0x0000000000000001UL, 0x0010000000000024UL, 0x00000006200c0042UL, 0x200d004300000007UL,
  0x3433483f00000010UL, 0x0000000020110043UL, 0x0080200100000000UL, 0x0008c18414007c00UL,
  0x70e0700014020043UL, 0x140500c300004800UL, 0x0000000000000000UL, 0x0000000000000000UL,
  0x0010000000000024UL, 0x00000006140c0042UL, 0x140d004300000007UL, 0x70e0b83f00000001UL,
  0x0000000014110043UL, 0x0080210100000008UL, 0x0008c00034007c00UL, 0x342e000834020123UL,
  0x0020000800680068UL, 0x0000002000000d00UL, 0x0000000000000001UL, 0x0010000000000024UL,
  0x00000006340c0042UL, 0x340d004300000007UL, 0x3433483f00000010UL, 0x0000000034110043UL,
  0x008020a100000000UL, 0x0008c00028007c00UL, 0x342e001028020123UL, 0x0020000800680068UL,
  0x0000002000000d00UL, 0x0000000000000001UL, 0x0010000000000024UL, 0x00000006280c0042UL,
  0x280d004300000007UL, 0x3433483f00000010UL, 0x0000000028110043UL, 0x0080208100000000UL,
  0x0008c00024007c00UL, 0x342e001824020123UL, 0x0020000800680068UL, 0x0000002000000d00UL,
  0x0000000000000001UL, 0x0010000000000024UL, 0x00000006240c0042UL, 0x240d004300000007UL,
  0x3433483f00000010UL, 0x0000000024110043UL, 0x008020e100000000UL, 0x0008000830007c00UL,
  0x3427000030020123UL, 0x0040000400340034UL, 0x0000000400000d00UL, 0x0002a40000000010UL,
  0x0010000000000024UL, 0x00000006300c0042UL, 0x300d004300000007UL, 0x3429a43f00000010UL,
  0x0000000030110043UL, 0x10007c0000000000UL, 0x1000042400000002UL, 0x0000000000000064UL,
  0x4000000010007c00UL, 0x0000006410007bc4UL, 0x10007c0000000000UL, 0x10097c0000000001UL,
  0x100c00430000002dUL, 0x0000000100000007UL, 0x00000011100f0123UL, 0x0000001500000001UL,
  0x000000010000000bUL, 0x0000000900000017UL, 0x0000001900000001UL, 0x00000025101c7c00UL,
  0x0000001b101e7c00UL, 0x0000002110267c00UL, 0x3c007c0030002001UL, 0x40007c0000000055UL,
  0x44007c0000000041UL, 0x48007c0000000041UL, 0x5400200100000041UL, 0x6c0020015c002001UL,
  0x2000200114002001UL, 0x2800200124002001UL, 0x30007fe434002001UL, 0x0000000000000064UL,
  0x0000000010097c00UL, 0x00000000100c0043UL, 0x100f012300000000UL, 0x0000000000000000UL,
  0x0000000000000000UL, 0x0000000000000000UL, 0x0000000000000000UL, 0x101c7c0000000000UL,
  0x101e7c0000000000UL, 0x10267c0000000000UL, 0x30007c0000000000UL, 0x3000042400000002UL,
  0x0000000000000064UL, 0x4000000030007c00UL, 0x0000006430007bc4UL, 0x008000e100000000UL,
  0x000000023c007c00UL, 0x000000643c000424UL, 0x3c007c0000000000UL, 0x3c007bc440000000UL,
  0x0000000000000064UL, 0x40007c0000800141UL, 0x4000042400000002UL, 0x0000000000000064UL,
  0x4000000040007c00UL, 0x0000006440007bc4UL, 0x0080016100000000UL, 0x0000000244007c00UL,
  0x0000006444000424UL, 0x44007c0000000000UL, 0x44007bc440000000UL, 0x0000000000000064UL,
  0x48007c0000800181UL, 0x4800042400000002UL, 0x0000000000000064UL, 0x4000000048007c00UL,
  0x0000006448007bc4UL, 0x008001a100000000UL, 0x0088108254007c00UL, 0x0000006454000424UL,
  0x54007c0000000000UL, 0x54007bc440881080UL, 0x0000000000000064UL, 0x5c007c0000800201UL,
  0x5c00042408000002UL, 0x0000000000000064UL, 0x480000005c007c00UL, 0x000000645c007bc4UL,
  0x0080024100000000UL, 0x004200026c007c00UL, 0x000000646c000424UL, 0x6c007c0000000000UL,
  0x6c007bc440420000UL, 0x0000000000000064UL, 0x14007c00008002c1UL, 0x1400042400000002UL,
  0x0000000000000064UL, 0x4000000014007c00UL, 0x0000006414007bc4UL, 0x0080000100000000UL,
  0x0000000220007c00UL, 0x0000006420000424UL, 0x20007c0000000000UL, 0x20007bc440000000UL,
  0x0000000000000064UL, 0x24007c0000800061UL, 0x2400042400000002UL, 0x0000000000000064UL,
  0x4000000024007c00UL, 0x0000006424007bc4UL, 0x0080008100000000UL, 0x0000000228007c00UL,
  0x0000006428000424UL, 0x28007c0000000000UL, 0x28007bc440000000UL, 0x0000000000000064UL,
  0x34007c00008000a1UL, 0x3400042400000002UL, 0x0000000000000064UL, 0x4000000034007c00UL,
  0x0000006434007bc4UL, 0x0080010100000000UL, 0x00802141000000fdUL, 0x000003503c007c00UL,
  0x040803033c020123UL, 0x10b7400600001155UL, 0x019f0000003401a0UL, 0x0003001000330000UL,
  0x0000000000010102UL, 0x00ffffda3c0c0043UL, 0x0080216100000000UL, 0x0000004040007c00UL,
  0x04080303400200e3UL, 0x10b7400000001155UL, 0x019f0000003401a0UL, 0x0007041000330000UL,
  0x00000000400a7c00UL, 0x00ffffda400c0043UL, 0x0080218100000000UL, 0x0000004044007c00UL,
  0x04080303440200e3UL, 0x10b7400000001155UL, 0x019f0000003401a0UL, 0x000b081000330000UL,
  0x00000000440a7c00UL, 0x00ffffda440c0043UL, 0x008021a100000000UL, 0x0000004048007c00UL,
  0x04080303480200e3UL, 0x10a3460000001155UL, 0x019f0000003401a0UL, 0x000f0c1000330000UL,
  0x00000000480a7c00UL, 0x00ffffda480c0043UL, 0x0080226100000000UL, 0x0800000060000042UL,
  0x60020123156000fcUL, 0x0000000000088000UL, 0x00002a3f00000003UL, 0x00000000000547ffUL,
  0x060403fd00000000UL, 0x600c004300000001UL, 0x2042204200000000UL, 0x00000001600b7c00UL,
  0x00341e7c61002003UL, 0x0045260a000039a7UL, 0x003f17b500006c8aUL, 0x003222b100001d2aUL,
  0x003118f40000eeb6UL, 0x003524810000bb4fUL, 0x00301fe6000026beUL, 0x003825450000a5f9UL,
  0x002f1c0b00001c1dUL, 0x00302c0500004405UL, 0x002b28760000b7a2UL, 0x00323750000057b7UL,
  0x001b243c0000af13UL, 0x00462b4a00000ed1UL, 0x0033235100003e8bUL, 0x003f1c7c000068f3UL,
  0x00391fd5000003bcUL, 0x002e17ae00009ea0UL, 0x00301d520000d97eUL, 0x00371d3500003b1aUL,
  0x003812e900007fecUL, 0x002e188b00008242UL, 0x00062c88000023b6UL, 0x00313311000060e1UL,
  0x002428e200009887UL, 0x002e2cf30000ed20UL, 0x00352a1c00003e80UL, 0x002b305000003511UL,
  0x00322cda0000ee42UL, 0x002e1c070000acadUL, 0x003a332800002317UL, 0x00341e7200009f56UL,
  0x00372fa90000a019UL, 0x002819b800003fc0UL, 0x003626ae0000d1e1UL, 0x001e14830000a382UL,
  0x001d1a170000060bUL, 0x0030218a000062b3UL, 0x0034425200001688UL, 0x00361b4b000073d9UL,
  0x002b1eb000006ef9UL, 0x00311ac00000cdf2UL, 0x00301a5b000043e9UL, 0x00303e080000ec60UL,
  0x00274081000085c2UL, 0x002c1eef0000ba83UL, 0x002e2c6e00008cf9UL, 0x003e235500006508UL,
  0x00352c2c0000d6caUL, 0x002f2c900000ce03UL, 0x00333710000046cbUL, 0x0027279f000028b7UL,
  0x003120690000c408UL, 0x002612430000b890UL, 0x00311583000061a8UL, 0x00391e0a0000a685UL,
  0x0030173800000642UL, 0x002d321e00001e79UL, 0x002539b800003a8bUL, 0x00271b2f00007039UL,
  0x00241b0200002e90UL, 0x001d4a150000717bUL, 0x002b418100007626UL, 0x002d363c0000b9dcUL,
  0x002b190b00006f42UL, 0x00281e3a0000d9afUL, 0x00301c2700001371UL, 0x0025258300005555UL,
  0x00362ad000002767UL, 0x00291fb6000068e5UL, 0x0009569e0000c676UL, 0x00361c58000076e9UL,
  0x0037195100005b15UL, 0x003825220000314fUL, 0x002a23a000002fc4UL, 0x001511d600001450UL,
  0x00311c240000c5adUL, 0x002f28b300001819UL, 0x00291d1e0000e2bfUL, 0x002b1fe80000920fUL,
  0x003026010000457fUL, 0x0039308500004742UL, 0x002414b60000276eUL, 0x002946c10000d797UL,
  0x00262250000092f7UL, 0x00421944000061f1UL, 0x002c370200002ce8UL, 0x001529c20000b91bUL,
  0x002f2a8b00004915UL, 0x002e285700004c83UL, 0x00312db0000002b8UL, 0x002a1aff0000cc72UL,
  0x002c2a710000f7c0UL, 0x003d217600000360UL, 0x0037293e0000af92UL, 0x002b184b000075f0UL,
  0x0036207100003242UL, 0x0027339b00004147UL, 0x003e10a5000002aaUL, 0x00300e6000007b15UL,
  0x003b1e3a00007a6bUL, 0x00220faa00004303UL, 0x002b22cc000012bfUL, 0x003225c100005e26UL,
  0x0039281100006a3dUL, 0x004120ef00000760UL, 0x002d2fd4000071d6UL, 0x002d2dd00000b49bUL,
  0x00301e1100005a18UL, 0x00231629000030dcUL, 0x002d41730000ff22UL, 0x003229c5000024caUL,
  0x003720e60000172dUL, 0x002d23040000cc80UL, 0x002d11330000fb83UL, 0x002f16b90000c688UL,
  0x003614e80000a190UL, 0x000b218700001799UL, 0x00302a82000085e9UL, 0x003126be0000c346UL,
  0x002720af00008dbaUL, 0x003420600000b40eUL, 0x003728ae0000a637UL, 0x00360e7400005090UL,
  0x003125c8000034a0UL, 0x0037218000000879UL, 0x003643840000164dUL, 0x00352298000093b2UL,
  0x00802221000025d0UL, 0x0174104c58007c00UL, 0x00087f8058020043UL, 0x590004030290120fUL,
  0x00000008000000c0UL, 0x0000000800000008UL, 0x0000000800000008UL, 0x0000000800000008UL,
  0x0000000800000008UL, 0x0000000800000008UL, 0x0000000800000008UL, 0x0000000800000008UL,
  0x0000000800000008UL, 0x000000c900000008UL, 0x0000001100000011UL, 0x0000001100000011UL,
  0x0000001100000011UL, 0x0000001100000011UL, 0x0000001100000011UL, 0x000000d200000011UL,
  0x000000005a000683UL, 0x000000000000c000UL, 0x000000000000c000UL, 0x000000000000c080UL,
  0x000000000000c080UL, 0x000000000000c080UL, 0x000000000000c100UL, 0x000000000000c100UL,
  0x187b00000000c180UL, 0x000000000000d869UL, 0x000000000000dd00UL, 0x000000000000de00UL,
  0x000000000000df00UL, 0x000000000000e000UL, 0x000000000000e100UL, 0x000000000000e200UL,
  0x000000000000e280UL, 0x7a6800000000e380UL, 0x000000000000c60cUL, 0x0000000000003900UL,
  0x0000000000003a00UL, 0x0000000000003a80UL, 0x0000000000003b80UL, 0x0000000000003c80UL,
  0x0000000000003d80UL, 0x0000000000003e80UL, 0x008022e100003f80UL, 0x0041c0c070007c00UL,
  0x10000892700200e3UL, 0x001a001a003400d0UL, 0x00cf000000000000UL, 0x0005000100330000UL,
  0x20007c0000802061UL, 0x200201230008c000UL, 0x0034003434270000UL, 0x00000d0000400008UL,
  0x0000000200000020UL, 0x0000002400000000UL, 0x200c004200100000UL, 0x0000000700000006UL,
  0x00000040200d0043UL, 0x201100433429a43fUL, 0x0000000000000000UL, 0x24007c0000802081UL,
  0x240200430008c184UL, 0x0001200070de8000UL, 0x00000000240500c3UL, 0x0000000000000000UL,
  0x0000002400000000UL, 0x240c004200100000UL, 0x0000000700000006UL, 0x00000001240d0043UL,
  0x2411004370dfa03fUL, 0x0000000800000000UL, 0x34007c0000802101UL, 0x340200430088c100UL,
  0x00002a40342ffb00UL, 0x00000000340500c3UL, 0x0000000000000000UL, 0x0000002400000000UL,
  0x340c004200100000UL, 0x0000000700000006UL, 0x00000040340d0043UL, 0x3411004334304fbfUL,
  0x0000000000000000UL, 0x30007c00008020e1UL, 0x300201230008c000UL, 0x0034003434270008UL,
  0x00000d0000400008UL, 0x0000000200000020UL, 0x0000002400000000UL, 0x300c004200100000UL,
  0x0000000700000006UL, 0x00000040300d0043UL, 0x301100433429a43fUL, 0x0000000000000000UL,
  0x1c007c0000802041UL, 0x1c0201230008c000UL, 0x0034003434270010UL, 0x00000d0000400008UL,
  0x0000000200000020UL, 0x0000002400000000UL, 0x1c0c004200100000UL, 0x0000000700000006UL,
  0x000000401c0d0043UL, 0x1c1100433429a43fUL, 0x0000000000000000UL, 0x28007c00008020a1UL,
  0x280201230008c000UL, 0x0034003434270018UL, 0x00000d0000400008UL, 0x0000000200000020UL,
  0x0000002400000000UL, 0x280c004200100000UL, 0x0000000700000006UL, 0x00000040280d0043UL,
  0x281100433429a43fUL, 0x0000000000000000UL, 0x18007c0000802021UL, 0x1802004300880108UL,
  0x00002a40342ffb00UL, 0x00000000180500c3UL, 0x0000000000000000UL, 0x0000002400000000UL,
  0x180c004200100000UL, 0x0000000700000006UL, 0x00000040180d0043UL, 0x1811004334304fbfUL,
  0x0000000000000000UL, 0x14007c0000802001UL, 0x1402012300080008UL, 0x001a001a342e0000UL,
  0x00000d0000800004UL, 0x0000002000000004UL, 0x0000002400015200UL, 0x140c004200100000UL,
  0x0000000700000006UL, 0x00000020140d0043UL, 0x14110043342f523fUL, 0x0000000000000000UL,
  0x0000000210007c00UL, 0x0000006410000424UL, 0x10007c0000000000UL, 0x10007bc440000000UL,
  0x0000000000000064UL, 0x0000000110007c00UL, 0x0000002f10020043UL, 0x100c01830000001bUL,
  0x0000000900000007UL, 0x0000000f00000011UL, 0x0000001500000009UL, 0x0000000900000005UL,
  0x0000000b00000017UL, 0x0000001900000009UL, 0x00000027101d7c00UL, 0x011b011a10207c00UL,
  0x0000002310277c00UL, 0x1800200114002001UL, 0x000003513c007c00UL, 0x0000004140007c00UL,
  0x0000004144007c00UL, 0x0000004148007c00UL, 0x6000200158002001UL, 0x1c00200170002001UL,
  0x2400200120002001UL, 0x3000200128002001UL, 0x14007fe434002001UL, 0x0000000000000064UL,
  0x0000006418007fe4UL, 0x1002004300000000UL, 0x0000000000000000UL, 0x00000000100c0183UL,
  0x0000000000000000UL, 0x0000000000000000UL, 0x0000000000000000UL, 0x0000000000000000UL,
  0x0000000000000000UL, 0x101d7c0000000000UL, 0x10207c0000000000UL, 0x10277c0000000000UL,
  0x14007c0000000000UL, 0x1400042400000002UL, 0x0000000000000064UL, 0x4000000014007c00UL,
  0x0000006414007bc4UL, 0x0080000100000000UL, 0x0000000218007c00UL, 0x0000006418000424UL,
  0x18007c0000000000UL, 0x18007bc440000000UL, 0x0000000000000064UL, 0x3c007c0000800021UL,
  0x3c00042400000002UL, 0x0000000000000064UL, 0x400000003c007c00UL, 0x000000643c007bc4UL,
  0x0080014100000000UL, 0x0000000240007c00UL, 0x0000006440000424UL, 0x40007c0000000000UL,
  0x40007bc440000000UL, 0x0000000000000064UL, 0x44007c0000800161UL, 0x4400042400000002UL,
  0x0000000000000064UL, 0x4000000044007c00UL, 0x0000006444007bc4UL, 0x0080018100000000UL,
  0x0000000248007c00UL, 0x0000006448000424UL, 0x48007c0000000000UL, 0x48007bc440000000UL,
  0x0000000000000064UL, 0x58007c00008001a1UL, 0x5800042400881082UL, 0x0000000000000064UL,
  0x4088108058007c00UL, 0x0000006458007bc4UL, 0x0080022100000000UL, 0x0800000260007c00UL,
  0x0000006460000424UL, 0x60007c0000000000UL, 0x60007bc448000000UL, 0x0000000000000064UL,
  0x70007c0000800261UL, 0x7000042400420002UL, 0x0000000000000064UL, 0x4042000070007c00UL,
  0x0000006470007bc4UL, 0x008002e100000000UL, 0x000000021c007c00UL, 0x000000641c000424UL,
  0x1c007c0000000000UL, 0x1c007bc440000000UL, 0x0000000000000064UL, 0x20007c0000800041UL,
  0x2000042400000002UL, 0x0000000000000064UL, 0x4000000020007c00UL, 0x0000006420007bc4UL,
  0x0080006100000000UL, 0x0000000224007c00UL, 0x0000006424000424UL, 0x24007c0000000000UL,
  0x24007bc440000000UL, 0x0000000000000064UL, 0x28007c0000800081UL, 0x2800042400000002UL,
  0x0000000000000064UL, 0x4000000028007c00UL, 0x0000006428007bc4UL, 0x008000a100000000UL,
  0x0000000230007c00UL, 0x0000006430000424UL, 0x30007c0000000000UL, 0x30007bc440000000UL,
  0x0000000000000064UL, 0x34007c00008000e1UL, 0x3400042400000002UL, 0x0000000000000064UL,
  0x4000000034007c00UL, 0x0000006434007bc4UL, 0x0080010100000000UL, 0x008021410000011dUL,
  0x000003503c007c00UL, 0x040803033c020123UL, 0x10b7400700001155UL, 0x00cf0000001a00d0UL,
  0x0003001000190000UL, 0x0000000000030104UL, 0x00ffffba3c0c0043UL, 0x0080216100000000UL,
  0x0000004040007c00UL, 0x04080303400200e3UL, 0x10b7400000001155UL, 0x00cf0000001a00d0UL,
  0x0007041000190000UL, 0x00000000400a7c00UL, 0x00ffffba400c0043UL, 0x0080218100000000UL,
  0x0000004044007c00UL, 0x04080303440200e3UL, 0x10b7400000001155UL, 0x00cf0000001a00d0UL,
  0x000b081000190000UL, 0x00000000440a7c00UL, 0x00ffffba440c0043UL, 0x008021a100000000UL,
  0x0000004048007c00UL, 0x04080303480200e3UL, 0x10a3470000001155UL, 0x00cf0000001a00d0UL,
  0x000f0c1000190000UL, 0x00000000480a7c00UL, 0x00ffffba480c0043UL, 0x0080228100000000UL,
  0x0800000064000042UL, 0x64020123156000fcUL, 0x0000000000080000UL, 0x00000a8f00000003UL,
  0x000000000002a3ffUL, 0x040403fd00000000UL, 0x640c004300000001UL, 0x2042204200000000UL,
  0x00000001640b7c00UL, 0xfffc262165004003UL, 0xfff917f7000089e4UL, 0xffff123a0000dc88UL,
  0xfffa14100000f1e2UL, 0xfffe160500003b9eUL, 0xfffe1e0b00006a2cUL, 0xfffc0e390000792dUL,
  0xfffe11d100000983UL, 0xfffc153900003fedUL, 0xfffc1009000095b3UL, 0xfffd10a100002a5dUL,
  0xfffb138100000ef6UL, 0xfffe0ceb00003eb5UL, 0xfffe166200006f76UL, 0xfffd131c00007de0UL,
  0xfffd29440000fe9fUL, 0xfffb0e2200004e65UL, 0xfffc0e4b0000277bUL, 0xfffb18bd0000b49bUL,
  0xfffc0e9e000039b9UL, 0xffff10520000e798UL, 0xfffc1203000064abUL, 0x00000ed1000091a8UL,
  0x00000c860000320fUL, 0xfff915b1000001dfUL, 0xfffe15fd00008866UL, 0xfff90e750000f725UL,
  0x00000c3300002383UL, 0xfffb19790000967fUL, 0xfffd1883000091cdUL, 0xfffb17c300008394UL,
  0x000225b300005acdUL, 0xfffd0af4000086d8UL, 0xffff1834000042edUL, 0xfff829640000c073UL,
  0xfffc0d960000c77aUL, 0xfffd119100000765UL, 0xfffb1e3400009a4dUL, 0x000219a900003236UL,
  0xfff810f40000dfe8UL, 0xffff0dca0000a1e3UL, 0xfffd178700002fa3UL, 0xfff80ed50000b996UL,
  0xfffe0f240000fdc7UL, 0xfffe156e00002e11UL, 0xffff1879000096e0UL, 0xfffe1a03000016c1UL,
  0xffff1521000002b6UL, 0xfffd0d1a00006ce4UL, 0xfffd105400003b4dUL, 0xfffc15050000607aUL,
  0xfffd13bb0000c14fUL, 0xfffc16230000b730UL, 0xffff168d0000c6d6UL, 0xfffe0fe60000f788UL,
  0xfffb10d90000fd85UL, 0xfffe0e350000295dUL, 0xfffc11cc000097bcUL, 0xfffd12dc0000564dUL,
  0xfffd15f300009891UL, 0xfff9297c0000a10eUL, 0x000422b80000f370UL, 0xfff00cb60000559bUL,
  0xfffa212400003debUL, 0xfffd0f78000086f7UL, 0xfffd11a60000b745UL, 0xfffc18e20000fa8cUL,
  0xfff619c100001c32UL, 0xfffd0df400005b07UL, 0xfff8408d00004566UL, 0xfff9113f000041deUL,
  0xfffb47d60000dbfdUL, 0xfffe11390000885cUL, 0xfff5105a00003e38UL, 0xfff81df600007eb2UL,
  0xfffc184300001eb4UL, 0xfffc0f3800009229UL, 0xfffe0f840000a15dUL, 0xfffe197a00006608UL,
  0xfffd17470000ae3eUL, 0xffff121f0000e652UL, 0xffff1eab0000cf7fUL, 0xfffe0dad000072bfUL,
  0xfffe148e00003aa1UL, 0xfffd125d0000cb3eUL, 0xffff14b6000006c2UL, 0xffff16d200005e13UL,
  0xfffd15be00007d24UL, 0xfffe181a0000e4c2UL, 0xfffe12770000563aUL, 0xffff12290000b478UL,
  0xfffd0c7600003bf4UL, 0x000009e90000f023UL, 0xfffd164100002a94UL, 0x00050d16000017b8UL,
  0xfffb1c67000094f9UL, 0xfffd17490000a8a4UL, 0xfffe13b20000bb3fUL, 0x00010f910000f4ddUL,
  0x0001145900001739UL, 0x0000113f00005fd9UL, 0xfffd1ccf00007517UL, 0xfffc0c430000940aUL,
  0xffff0ef200008c0cUL, 0x0002111400000e90UL, 0xfffd162d000053aeUL, 0xfffe16aa0000a103UL,
  0x0000148200000559UL, 0xfffe0e8500007352UL, 0x0001134d0000fd32UL, 0xfffc08f90000a6c4UL,
  0xfffb15160000c219UL, 0xfffe132100003d11UL, 0xfffe0c9e0000d755UL, 0xfffe0e8a0000d612UL,
  0xfffd21f20000b64cUL, 0x000010000000959fUL, 0xffef226a00006d9eUL, 0xfffb0cc40000452eUL,
  0xfffc18150000e8dfUL, 0xfffb1f040000a751UL, 0x00010f8c0000499fUL, 0xfffd114a00009d2cUL,
  0xfffe136e0000687aUL, 0xfffb19fd00006641UL, 0xffff15f90000eb6aUL, 0xfffe0fb800007317UL,
  0xffff18f6000022ebUL, 0xffff10200000b003UL, 0x00001c6900005c78UL, 0xfffe0ef60000f802UL,
  0xfffc1d850000f25fUL, 0xfffd0e840000195aUL, 0xffff19760000d218UL, 0xfffa1a070000c1f5UL,
  0xfff8146c00005facUL, 0xffff152900009c4eUL, 0xfffe16580000f82aUL, 0xfffe0b8b00005a24UL,
  0xfffc61ef0000e9d8UL, 0x00030ab300002c60UL, 0xfffd0f2c0000438aUL, 0xfffb0ad70000c52aUL,
  0xffed17c5000028d7UL, 0xfffc1066000093b2UL, 0xfffd126000009d15UL, 0xfffc0cba00006a28UL,
  0xfffb1acc00001e97UL, 0xfffc17e00000a296UL, 0x0004178f0000660bUL, 0x00010f6b0000e9faUL,
  0xfffd31a200004ea5UL, 0xffff0cf00000c3c4UL, 0xfffa3f660000a786UL, 0x00020e4100000c6fUL,
  0xfff811f9000006b2UL, 0x000022330000d59aUL, 0xfffc0df800000b41UL, 0xfffe0e31000096dbUL,
  0xfff90b6d00001eb5UL, 0xfffc1a1b0000cab6UL, 0x0000125b0000e8b7UL, 0x000017150000621eUL,
  0xfffd1fbc00002e72UL, 0x0000105e00006a6aUL, 0xfffe0cb70000f357UL, 0xfffd201e000027deUL,
  0xfffc0bb4000067acUL, 0x000015ab000051feUL, 0xfffe26c2000059f2UL, 0x000110ee00008e1aUL,
  0xfff5176c0000d932UL, 0xfff916b400000581UL, 0xfff9102500007e0eUL, 0x00001bae0000e965UL,
  0x00000c1000000676UL, 0xfff715630000d33dUL, 0xfffb165a0000b6a5UL, 0xfffd10aa000079d9UL,
  0xfff81283000026ceUL, 0x0000164100004c07UL, 0xffff214400002893UL, 0xfffa1c0300003afeUL,
  0xfffc16280000dc16UL, 0xfffa290100005f6cUL, 0xfffb15d600001b80UL, 0x000011fc0000f9d7UL,
  0xfffe112500003ff3UL, 0xfffd1aaf0000b1a6UL, 0x000013640000864aUL, 0xfff8125f00004db1UL,
  0xfffd18100000292aUL, 0xffff0e4c0000ae3cUL, 0xfff70eb9000064d4UL, 0xfffc15ab0000c490UL,
  0xfffe0e990000cda9UL, 0xfffb109e00006649UL, 0xfff317d60000c0deUL, 0xfffe1b280000c6a2UL,
  0xfffd0d3100009b54UL, 0xfffa2c2800009f72UL, 0x000016920000b3ffUL, 0xfffa1a58000010eaUL,
  0xfffe131a0000c884UL, 0xffff123900007134UL, 0xfffc180f0000795bUL, 0xfff911a50000eb14UL,
  0xffff122f000003a6UL, 0x0001106b00005aefUL, 0xffff101e0000e575UL, 0xffff1b1900004c21UL,
  0xffff13d500008c06UL, 0x000110d700001582UL, 0xfffe132c000056f4UL, 0x00000ee900004e5cUL,
  0xfffe11690000894dUL, 0x00010a3a0000be8dUL, 0xfffc109800001eacUL, 0xfffb19f10000c9d8UL,
  0x0000176800001363UL, 0xffff0efb00000952UL, 0xffff297400007d35UL, 0xfffc0ecc0000f9abUL,
  0xfffe0e030000f831UL, 0xfffd0d290000e036UL, 0x000110ed00004a2cUL, 0x0002122e0000e989UL,
  0x00001496000012f9UL, 0xfffb0c0700002c03UL, 0x0002115a00003b2aUL, 0xfffe0d480000f9e6UL,
  0xfffd134a0000613aUL, 0xfffd0fcb00004b8fUL, 0xfff911a200001be5UL, 0xfffd0f35000018a9UL,
  0xfffa114f000042f2UL, 0xfffe0cd700003908UL, 0xfff516240000e70dUL, 0xfffe18c000002a74UL,
  0xfff6127e0000cedeUL, 0xffff104b00000093UL, 0xfff9140200009ce4UL, 0xfffe1ca200006f91UL,
  0xffff0f0900005e80UL, 0xfffd2d9a0000a0b2UL, 0xffff192d00006d79UL, 0xfff70fb300006c67UL,
  0xfffc1bd8000077abUL, 0x00020dcb00004269UL, 0xffff17e40000945aUL, 0x000008d20000d9dcUL,
  0xfffe10d20000198eUL, 0x00000c22000095f5UL, 0xffff0be00000850eUL, 0x000012270000219aUL,
  0xfffc0f090000960eUL, 0x0080220100001b4bUL, 0x0174104c54007c00UL, 0x00087f8054020043UL,
  0x550004030290120fUL, 0x00000008000000c0UL, 0x0000000800000008UL, 0x0000000800000008UL,
  0x0000000800000008UL, 0x0000000800000008UL, 0x0000000800000008UL, 0x0000000800000008UL,
  0x0000000800000008UL, 0x00000011000000c9UL, 0x0000001100000011UL, 0x0000001100000011UL,
  0x0000001100000011UL, 0x0000001100000011UL, 0x0000001100000011UL, 0x0000001100000011UL,
  0x000000d200000011UL, 0x0000000056000683UL, 0x000000000000c000UL, 0x000000000000c000UL,
  0x000000000000c000UL, 0x000000000000c080UL, 0x000000000000c080UL, 0x000000000000c080UL,
  0x000000000000c100UL, 0x158700000000c100UL, 0x000000000000d555UL, 0x000000000000d580UL,
  0x000000000000d580UL, 0x000000000000d680UL, 0x000000000000d700UL, 0x000000000000d800UL,
  0x000000000000d900UL, 0x000000000000d980UL, 0x6ba500000000da80UL, 0x000000000000d4a9UL,
  0x0000000000003980UL, 0x0000000000003a80UL, 0x0000000000003b80UL, 0x0000000000003c00UL,
  0x0000000000003d00UL, 0x0000000000003e00UL, 0x0000000000003e80UL, 0x008022c100003f80UL,
  0x0041c0c06c007c00UL, 0x100008926c0200e3UL, 0x000d000d001a0068UL, 0x0067000000000000UL,
  0x0005000100190000UL, 0x24007c0000802081UL, 0x240201230008c000UL, 0x001a001a342e0000UL,
  0x00000d0000800008UL, 0x0000000400000020UL, 0x0000002400000000UL, 0x240c004200100000UL,
  0x0000000700000006UL, 0x00000100240d0043UL, 0x24110043342f523fUL, 0x0000000000000000UL,
  0x20007c0000802061UL, 0x200200430008c184UL, 0x0004800070da0000UL, 0x00000000200500c3UL,
  0x0000000000000000UL, 0x0000002400000000UL, 0x200c004200100000UL, 0x0000000700000006UL,
  0x00000001200d0043UL, 0x2011004370de803fUL, 0x0000000800000000UL, 0x30007c00008020e1UL,
  0x300200430088c100UL, 0x00000a9034304f80UL, 0x00000000300500c3UL, 0x0000000000000000UL,
  0x0000002400000000UL, 0x300c004200100000UL, 0x0000000700000006UL, 0x00000100300d0043UL,
  0x30110043343064dfUL, 0x0000000000000000UL, 0x38007c0000802121UL, 0x380201230008c000UL,
  0x001a001a342e0008UL, 0x00000d0000800008UL, 0x0000000400000020UL, 0x0000002400000000UL,
  0x380c004200100000UL, 0x0000000700000006UL, 0x00000100380d0043UL, 0x38110043342f523fUL,
  0x0000000000000000UL, 0x2c007c00008020c1UL, 0x2c0201230008c000UL, 0x001a001a342e0010UL,
  0x00000d0000800008UL, 0x0000000400000020UL, 0x0000002400000000UL, 0x2c0c004200100000UL,
  0x0000000700000006UL, 0x000001002c0d0043UL, 0x2c110043342f523fUL, 0x0000000000000000UL,
  0x18007c0000802021UL, 0x180201230008c000UL, 0x001a001a342e0018UL, 0x00000d0000800008UL,
  0x0000000400000020UL, 0x0000002400000000UL, 0x180c004200100000UL, 0x0000000700000006UL,
  0x00000100180d0043UL, 0x18110043342f523fUL, 0x0000000000000000UL, 0x1c007c0000802041UL,
  0x1c02004300880108UL, 0x00000a9034304f80UL, 0x000000001c0500c3UL, 0x0000000000000000UL,
  0x0000002400000000UL, 0x1c0c004200100000UL, 0x0000000700000006UL, 0x000001001c0d0043UL,
  0x1c110043343064dfUL, 0x0000000000000000UL, 0x14007c0000802001UL, 0x1402012300080008UL,
  0x000d000d342f5200UL, 0x00000d0001000004UL, 0x0000004000000004UL, 0x000000240000a900UL,
  0x140c004200100000UL, 0x0000000700000006UL, 0x00000040140d0043UL, 0x14110043342ffb3fUL,
  0x0000000000000000UL, 0x0000000210007c00UL, 0x0000006410000424UL, 0x10007c0000000000UL,
  0x10007bc440000000UL, 0x0000000000000064UL, 0x0000000110007c00UL, 0x0000002d10027c00UL,
  0x0000001b10047c00UL, 0x00000009100c0183UL, 0x0000000f00000007UL, 0x0000000700000013UL,
  0x0000000d00000015UL, 0x0000001700000007UL, 0x0000000700000003UL, 0x101c7c0000000019UL,
  0x10227c0000000029UL, 0x10267c00011b031aUL, 0x1400200100000021UL, 0x3c007c001c002001UL,
  0x40007c0000000351UL, 0x44007c0000000041UL, 0x48007c0000000041UL, 0x5400200100000041UL,
  0x6c00200164002001UL, 0x2000200118002001UL, 0x2c00200124002001UL, 0x3800200130002001UL,
  0x0000006414007fe4UL, 0x1c007fe400000000UL, 0x0000000000000064UL, 0x0000000010027c00UL,
  0x0000000010047c00UL, 0x00000000100c0183UL, 0x0000000000000000UL, 0x0000000000000000UL,
  0x0000000000000000UL, 0x0000000000000000UL, 0x0000000000000000UL, 0x101c7c0000000000UL,
  0x10227c0000000000UL, 0x10267c0000000000UL, 0x14007c0000000000UL, 0x1400042400000002UL,
  0x0000000000000064UL, 0x4000000014007c00UL, 0x0000006414007bc4UL, 0x0080000100000000UL,
  0x000000021c007c00UL, 0x000000641c000424UL, 0x1c007c0000000000UL, 0x1c007bc440000000UL,
  0x0000000000000064UL, 0x3c007c0000800041UL, 0x3c00042400000002UL, 0x0000000000000064UL,
  0x400000003c007c00UL, 0x000000643c007bc4UL, 0x0080014100000000UL, 0x0000000240007c00UL,
  0x0000006440000424UL, 0x40007c0000000000UL, 0x40007bc440000000UL, 0x0000000000000064UL,
  0x44007c0000800161UL, 0x4400042400000002UL, 0x0000000000000064UL, 0x4000000044007c00UL,
  0x0000006444007bc4UL, 0x0080018100000000UL, 0x0000000248007c00UL, 0x0000006448000424UL,
  0x48007c0000000000UL, 0x48007bc440000000UL, 0x0000000000000064UL, 0x54007c00008001a1UL,
  0x5400042400881082UL, 0x0000000000000064UL, 0x4088108054007c00UL, 0x0000006454007bc4UL,
  0x0080020100000000UL, 0x0800000264007c00UL, 0x0000006464000424UL, 0x64007c0000000000UL,
  0x64007bc448000000UL, 0x0000000000000064UL, 0x6c007c0000800281UL, 0x6c00042400420002UL,
  0x0000000000000064UL, 0x404200006c007c00UL, 0x000000646c007bc4UL, 0x008002c100000000UL,
  0x0000000218007c00UL, 0x0000006418000424UL, 0x18007c0000000000UL, 0x18007bc440000000UL,
  0x0000000000000064UL, 0x20007c0000800021UL, 0x2000042400000002UL, 0x0000000000000064UL,
  0x4000000020007c00UL, 0x0000006420007bc4UL, 0x0080006100000000UL, 0x0000000224007c00UL,
  0x0000006424000424UL, 0x24007c0000000000UL, 0x24007bc440000000UL, 0x0000000000000064UL,
  0x2c007c0000800081UL, 0x2c00042400000002UL, 0x0000000000000064UL, 0x400000002c007c00UL,
  0x000000642c007bc4UL, 0x008000c100000000UL, 0x0000000230007c00UL, 0x0000006430000424UL,
  0x30007c0000000000UL, 0x30007bc440000000UL, 0x0000000000000064UL, 0x38007c00008000e1UL,
  0x3800042400000002UL, 0x0000000000000064UL, 0x4000000038007c00UL, 0x0000006438007bc4UL,
  0x0080012100000000UL, 0x008021410000013dUL, 0x000003503c007c00UL, 0x040803033c020123UL,
  0x10b7400700001155UL, 0x00670000000d0068UL, 0x00030010000c0000UL, 0x0000000000070108UL,
  0x00ffffab3c0c0043UL, 0x0080216100000000UL, 0x0000004040007c00UL, 0x04080303400200e3UL,
  0x10b7400000001155UL, 0x00670000000d0068UL, 0x00070410000c0000UL, 0x00000000400a7c00UL,
  0x00ffffab400c0043UL, 0x0080218100000000UL, 0x0000004044007c00UL, 0x04080303440200e3UL,
  0x10b7400000001155UL, 0x00670000000d0068UL, 0x000b0810000c0000UL, 0x00000000440a7c00UL,
  0x00ffffab440c0043UL, 0x008021a100000000UL, 0x0000004048007c00UL, 0x04080303480200e3UL,
  0x10a3470000001155UL, 0x00670000000d0068UL, 0x000f0c10000c0000UL, 0x00000000480a7c00UL,
  0x00ffffab480c0043UL, 0x008022a100000000UL, 0x0800000068000042UL, 0x68020123156000fcUL,
  0x0000000000088000UL, 0x000002a300000003UL, 0x00000000000151ffUL, 0x000403fd00000000UL,
  0x680c004300000001UL, 0x2042204200000000UL, 0x00000001680b7c00UL, 0x00121fec69006003UL,
  0x001b28220000898fUL, 0x001827520000cc35UL, 0x00101d180000af91UL, 0x000d37b90000f5faUL,
  0xfffe2f990000b6beUL, 0x001825720000f1faUL, 0x001526100000d4e4UL, 0x0011251b0000b358UL,
  0x000e300500003548UL, 0x00131cf20000d7bbUL, 0x000d1bf80000bbaaUL, 0x0016276b0000ce73UL,
  0x00102e380000301cUL, 0x000f32180000d827UL, 0x0019135400002bfcUL, 0x000f48ec0000d3baUL,
  0x00182c8300008485UL, 0x00142e8300009c62UL, 0x0011328100006365UL, 0x00131e100000eba2UL,
  0x00171a4100008479UL, 0x0012334f0000fb8bUL, 0x00141e540000ba30UL, 0x000b229e0000b3dbUL,
  0x000d4c8200008fa1UL, 0x0010222800004036UL, 0x000d24af00000b0cUL, 0x001614ac0000b0efUL,
  0x0010224f0000f361UL, 0x001524c400008d4cUL, 0x000f23470000b147UL, 0x000228c600005f6cUL,
  0x000d25b100009f9aUL, 0x0016291e000012c9UL, 0x00024463000015e2UL, 0x001418250000cfc2UL,
  0x00103cec0000795fUL, 0x0010278e00001838UL, 0x00122824000010dbUL, 0x000823b90000ab8aUL,
  0x001a17fe0000e88aUL, 0x001827c000004dcbUL, 0x000a22cc0000e068UL, 0x00171c020000b956UL,
  0x001120c2000046eeUL, 0x00142f1c00002cb2UL, 0x00132659000042e0UL, 0x000e346200009044UL,
  0x001c1a830000853eUL, 0x0011218d0000010eUL, 0x000d224d0000bf4fUL, 0x001624840000df48UL,
  0x001739b400009808UL, 0x00152dfb00000b21UL, 0x000126b10000491bUL, 0x001624fe0000dbadUL,
  0x000e24800000b205UL, 0x001f16330000b8beUL, 0x000f365400006732UL, 0x001c14a800009986UL,
  0x000e25e500001d93UL, 0x00141e3600001e69UL, 0x001624de0000677cUL, 0x0007260b0000eb2bUL,
  0x0019219700002c6bUL, 0x001a1bb600004de2UL, 0x000f2ac50000331cUL, 0x001839340000f2d5UL,
  0x001238cb0000001cUL, 0x000e1eb600000ac3UL, 0x00142dd400004eb3UL, 0x000f22bb0000a483UL,
  0x001a1efd0000d235UL, 0x001224940000205fUL, 0x000b3d2900001742UL, 0x0014288e00005849UL,
  0x001033d60000e6faUL, 0x00133a020000fd58UL, 0x001817280000e344UL, 0x00151b730000bd50UL,
  0x00111cc200002fd6UL, 0x000d1cdb0000df6eUL, 0x00113dd5000048d7UL, 0x00213be500002c94UL,
  0x001024fb00008566UL, 0x000528ee0000214cUL, 0x001a1f790000af96UL, 0x0012280f0000832cUL,
  0x001d22aa0000023aUL, 0x00161cf90000cb7dUL, 0x00162b780000c9d1UL, 0x001b178e00003812UL,
  0x00181e4000004c47UL, 0x00055309000059ceUL, 0x000d29b70000df28UL, 0x001a1c760000184eUL,
  0x00111ee3000046bdUL, 0x00031ccf00006705UL, 0x001b18d2000016b9UL, 0x000d29ca0000b95cUL,
  0x000a32980000febdUL, 0x00131a1d0000b659UL, 0x000f1bfc00006d18UL, 0x00191b5c00000d61UL,
  0x001127b30000a0c2UL, 0x00161b780000d9c8UL, 0x0016178a0000af37UL, 0x001523ab0000f16aUL,
  0x000d2996000064f1UL, 0x001a19d000009ed0UL, 0x0014200a0000147cUL, 0x001515f200001bb0UL,
  0x00143bfe0000f990UL, 0x001b3a28000098abUL, 0x000c24d600001fe6UL, 0x00142adf0000f63bUL,
  0x000e3ade0000e68aUL, 0x001c29fe0000bc2eUL, 0x001b1220000006e9UL, 0x0011266900002ec9UL,
  0x00061e5600002a5bUL, 0x000b6605000080abUL, 0x001a144c00009d50UL, 0x0015239c00009520UL,
  0x000f274e0000c5a4UL, 0x000b44bc000059d5UL, 0x001c131f000056e4UL, 0x001a1e3b0000f8d6UL,
  0x0009256100001610UL, 0x00131fcd00000082UL, 0x001836b60000b47dUL, 0x00121ba60000931fUL,
  0x00101fdc0000d3fcUL, 0x00072e1b000068a4UL, 0x00182c0a0000d977UL, 0x001816060000b53cUL,
  0x001719d000008517UL, 0x001928df0000f395UL, 0x000a1b060000c294UL, 0x000c1632000097c2UL,
  0x00161a3c00006274UL, 0xfffe262d0000e748UL, 0x001022e10000dfc5UL, 0x001d14c00000b2d4UL,
  0x001b18640000454bUL, 0x000f1b7e0000238bUL, 0x000623cb0000b38aUL, 0x001235650000dd30UL,
  0x0012299c0000ac71UL, 0x00181a700000f552UL, 0x001028fc0000e904UL, 0x0008220600002694UL,
  0x000832480000e734UL, 0x001021df00001248UL, 0x001528f4000058ceUL, 0x000d26550000a602UL,
  0x000a396600003740UL, 0x000d25ed00003313UL, 0x0016183b0000f6b8UL, 0x000c2beb0000c3b4UL,
  0x0010412500005053UL, 0x001b1aa70000366bUL, 0x0017242900003540UL, 0x00125c6b0000dc0eUL,
  0x000858450000e70fUL, 0x00181e3d00008c7dUL, 0x00162d950000ae58UL, 0x000e20b60000b57eUL,
  0x001e166e0000888eUL, 0x0017185b0000b2d5UL, 0x00191e0500008142UL, 0x001323660000d1a0UL,
  0x000c2f68000088dfUL, 0x000a28df000031aeUL, 0x00123a02000041ceUL, 0x001a24500000610cUL,
  0x0015335c000017d4UL, 0x001b4e0900006f2bUL, 0x000d3ff60000ed5fUL, 0x0009343d0000da31UL,
  0x00101cbf00006e95UL, 0x001715f700007182UL, 0x000c249f0000433cUL, 0xfff828f90000b5aaUL,
  0x001b1c180000c6c4UL, 0x000f740800005377UL, 0x00123bee0000e440UL, 0x00173268000083a5UL,
  0x00161d28000064bcUL, 0x00062e610000c7e1UL, 0x00142639000002b9UL, 0x00161d73000071f4UL,
  0x0008228f000026ceUL, 0x00121e40000020feUL, 0x001a1f670000e903UL, 0x001c185200002a5cUL,
  0x001914e600005595UL, 0x0009286800007e10UL, 0x001122640000b92dUL, 0x00102ca300003c50UL,
  0x001128cb00004693UL, 0x000526ab00004710UL, 0x00122b530000fcdeUL, 0x000e284800001835UL,
  0x000f513e0000ed96UL, 0x001920420000ddcdUL, 0x001321000000991eUL, 0x00141e2b0000ff8fUL,
  0x0013349200009b41UL, 0x0019276600006dadUL, 0x001523e10000ebedUL, 0x00153d7900002a17UL,
  0x00091e800000801aUL, 0x001715610000c29dUL, 0x000b2fe1000065a8UL, 0x000e290000008bf2UL,
  0x00054f020000e6bbUL, 0x00171b410000dcc1UL, 0x000c1fae000054d4UL, 0x0012277b0000d4ccUL,
  0x000f209900001c89UL, 0x001a19b50000a27dUL, 0x000f2f220000c175UL, 0x001c4486000002eeUL,
  0x0018228e0000bea8UL, 0x000c1eb000009aecUL, 0x001039080000cc2bUL, 0x000e35f90000ae9aUL,
  0x0014365500003a0dUL, 0x000c307e00003335UL, 0x000c243e00008d2dUL, 0x001723140000188bUL,
  0x001817e400008315UL, 0x00122aaa0000d09dUL, 0x000a1d0b0000b580UL, 0x001d13e100008f2cUL,
  0x001925e900007ad8UL, 0x00181e9f00002485UL, 0x001d1e8a0000a176UL, 0x00073a770000b76dUL,
  0x00112e8f00004aabUL, 0x001427d600000cccUL, 0x000f77560000c8c0UL, 0x00141e8500007763UL,
  0x000a200800009443UL, 0x00181d530000aa30UL, 0x00112bc4000046a8UL, 0x00171b8400000d84UL,
  0x001522de0000664fUL, 0x001a2c2700005284UL, 0x0017177a0000d8b7UL, 0x0010229a0000099cUL,
  0x000937520000fe09UL, 0x0011230b00002b92UL, 0xfffc231f00001345UL, 0x001535e00000872cUL,
  0x00104a92000094f9UL, 0x000f1ee0000078eeUL, 0x000c201600007f5eUL, 0x00032399000051c4UL,
  0x0010603900000d56UL, 0x000429d70000d17fUL, 0x00023ca4000051c1UL, 0x000d28cc0000a6b4UL,
  0x00141d200000df53UL, 0x000c2d510000855eUL, 0x000c23ec0000810dUL, 0x00181fc500004152UL,
  0x001123960000c7f9UL, 0x000c21b9000056c4UL, 0x00111edd00007fe3UL, 0x0010284200007e8dUL,
  0x0012285500001275UL, 0x001320aa00007ea3UL, 0x001a27f000009b09UL, 0x00141c6e0000b53aUL,
  0x0015266700005056UL, 0x00162fe50000a791UL, 0x000e31ff00005857UL, 0x001d2b030000cd34UL,
  0x0008287400004540UL, 0x00141bcd0000a14fUL, 0x00082fd100001447UL, 0x001333c30000bc6aUL,
  0x00171a210000637bUL, 0x001721a40000f35aUL, 0x001b48840000d151UL, 0x0012313d0000ca56UL,
  0x0014288b0000b279UL, 0x000d243e0000fc34UL, 0x000c27cc0000c88bUL, 0x00042b130000e245UL,
  0x000f34f60000340bUL, 0x0014260c0000a005UL, 0x001557810000aaceUL, 0x0010192e0000ba0cUL,
  0x001a1f040000e931UL, 0x000a478600007b50UL, 0x00134dea0000b81dUL, 0x00122e080000bd91UL,
  0x00151d490000a545UL, 0x00182ad300005fc6UL, 0x0018198600004990UL, 0x001439e20000d3b3UL,
  0x00151cf500004c4eUL, 0x00111efa0000c1ecUL, 0x000d24770000e55fUL, 0x00151db500008d24UL,
  0x0018208100008bd4UL, 0x0008287e00003372UL, 0x000e3c980000ca9cUL, 0x001a1c48000023bdUL,
  0x00111cbe0000e691UL, 0x00182727000080eaUL, 0x001423f200007244UL, 0x00181d8300003a6cUL,
  0x00132a280000e3afUL, 0x001027160000bc94UL, 0x000922160000e4b8UL, 0x001024e60000e185UL,
  0x000c3b720000d865UL, 0x00131d160000d78bUL, 0x000e1fb50000213dUL, 0x001023de00007a13UL,
  0x00111d050000f91eUL, 0x001317920000927dUL, 0x001014380000f9d3UL, 0x0018163c0000a77bUL,
  0x00192414000056dcUL, 0x00082d7d0000ffe9UL, 0x000824760000a962UL, 0x000f1c27000097cbUL,
  0x001b18cd0000761bUL, 0x000c315600006494UL, 0x00173c9e0000d040UL, 0x000f3ae80000db01UL,
  0x0005308d0000ee0fUL, 0x001326c9000071acUL, 0x001022c0000032b8UL, 0x001c1c9a0000cd8fUL,
  0x001920ad000069a4UL, 0x001517f80000264eUL, 0x001423330000c375UL, 0x0014171a000027c1UL,
  0x0019137e00009dc4UL, 0x001731410000cb87UL, 0xffff26060000897fUL, 0x001b1ba70000936bUL,
  0x001918e800000894UL, 0x0016613300002f59UL, 0x000c2cfd0000b5dcUL, 0x001119ee0000cfddUL,
  0x001d15d100003785UL, 0x00161bc70000152eUL, 0x001715bf0000b2adUL, 0x00183b1b00009213UL,
  0x001a519d0000bf90UL, 0x001a184f00008d8dUL, 0x000c20750000fd0fUL, 0x000d2b670000e9bdUL,
  0x0007248f0000f675UL, 0x001816e10000911eUL, 0x0012424d0000034bUL, 0x00171eae0000d84dUL,
  0x000e390d0000bde1UL, 0x001718990000bbabUL, 0x001a1bee0000f2a7UL, 0x001b19e7000090f2UL,
  0x0017176a00006988UL, 0x00122aad0000acf3UL, 0x0016365c00008ed7UL, 0x0014274d0000d99dUL,
  0xffff22ec0000ec6bUL, 0x001430490000d6a7UL, 0x000e1f810000b641UL, 0x001b14130000b6beUL,
  0x0017173200007cacUL, 0x00151b270000c9afUL, 0x000c22ec00008f82UL, 0x0014221c0000f9deUL,
  0x000c262500009483UL, 0x000e191e000072a8UL, 0x001e16e40000f847UL, 0x680b7c00000060a0UL,
  0x6b00200300000000UL, 0x0000bea8000b2ffaUL, 0x000030a200062443UL, 0x00000cf0001243c7UL,
  0x00000edc00173353UL, 0x0000f6cd001b2278UL, 0x00000bb9001022b6UL, 0x000092b8000b323eUL,
  0x000047b300122c6aUL, 0x0000c1e1001518d4UL, 0x00004ce7000d27c6UL, 0x00007f45000f19dcUL,
  0x00005cc1001526e9UL, 0x0000653e00191c7aUL, 0x0000d2ba00151e8fUL, 0x0000ab2b00112d1fUL,
  0x0000c65300141a53UL, 0x0000c98000161155UL, 0x000087a10011237dUL, 0x0000504a001631ccUL,
  0x0000729800132b6fUL, 0x0000d72b001624adUL, 0x0000a03900181a75UL, 0x0000d3c8fffc286fUL,
  0x0000ee5000132d2aUL, 0x0000967e001421ccUL, 0x000024a5000f22aeUL, 0x00008d5c000226c0UL,
  0x0000fc5b00123595UL, 0x0000db03000c1e91UL, 0x0000efcb001221ddUL, 0x0000e838000d507bUL,
  0x0000633500131aa7UL, 0x0000179100111f45UL, 0x0000739900172253UL, 0x00003a16000a474bUL,
  0x000006a900191f50UL, 0x00006c5f00024272UL, 0x0000f274001326daUL, 0x0000132900101a7dUL,
  0x0000208900181720UL, 0x0000da8b00191871UL, 0x0000f97b00092606UL, 0x0000041e00111efaUL,
  0x000040fb00113e42UL, 0x00008dd8001c145bUL, 0x000024dc00081ffbUL, 0x000056e600121f67UL,
  0x0000d19b001418d4UL, 0x0000c1b300152bb0UL, 0x0000dbed001413efUL, 0x0000362900162030UL,
  0x0000199a00171efdUL, 0x0000bef700122300UL, 0x00004b42000b433bUL, 0x0000ff58fff232d3UL,
  0x0000341c001318d4UL, 0x0000b9190018232fUL, 0x00001cc500171f4fUL, 0x0000d022000c3140UL,
  0x00002149fffd43aeUL, 0x00006baa0019225dUL, 0x000078b5fffe3666UL, 0x0000b82800131e4cUL,
  0x0000583e00123269UL, 0x0000162e00192da7UL, 0x000090ea001c158dUL, 0x0000ca590020133bUL,
  0x0000fae400181c09UL, 0x00006964000147c5UL, 0x00001f89000e2725UL, 0x00000afc00151edcUL,
  0x0000d835000f2789UL, 0x000002b1000f6aadUL, 0x0000e414001137dcUL, 0x00007e2d0007172fUL,
  0x0000893300142035UL, 0x0000244c00181d09UL, 0x0000392600182138UL, 0x0000803100082019UL,
  0x000051d400111e16UL, 0x00003d2400161a1aUL, 0x0000d00c00144273UL, 0x00000807001229acUL,
  0x0000564000171792UL, 0x00006a1e00152249UL, 0x000041d9000c3a4aUL, 0x0000c272000d1a7fUL,
  0x00000c6500161f7eUL, 0x00003537000d508eUL, 0x000017a60010238bUL, 0x00005629001729d9UL,
  0x0000f19700082132UL, 0x0000305c000a317dUL, 0x00001449000f1c6eUL, 0x000016b500141a4bUL,
  0x00008369000f4982UL, 0x00009d4500171dbfUL, 0x00006ea800112c75UL, 0x0000bd730010368eUL,
  0x000086df00112aa0UL, 0x00007d28001522f1UL, 0x0000305f000a1dccUL, 0x0000df68000644e3UL,
  0x0000253f001718fcUL, 0x000051b100104019UL, 0x000068b0001028baUL, 0x000005d400093647UL,
  0x0000dbd500151de5UL, 0x000062e300104095UL, 0x0000464600123bf6UL, 0x000055db001b1b6cUL,
  0x0000f93700122241UL, 0x0000c803001422a1UL, 0x0000223500181f5bUL, 0x0000b25f00102390UL,
  0x0000612a001613e2UL, 0x0000e5a700165a1fUL, 0x00001dd900123c24UL, 0x0000d88d0012247eUL,
  0x0000e661000e1ef8UL, 0x00008b9300112f3cUL, 0x00008b6100103514UL, 0x0000f70e000f224bUL,
  0x00000785001d19b7UL, 0x0000b697001318d5UL, 0x0000ca6d0013303aUL, 0x0000aee800171894UL,
  0x00003ae4000c22bfUL, 0x58007c0000802221UL, 0x580200430174104cUL, 0x0290120f00087f80UL,
  0x000000c059000403UL, 0x0000000800000008UL, 0x0000000800000008UL, 0x0000000800000008UL,
  0x0000000800000008UL, 0x0000000800000008UL, 0x0000000800000008UL, 0x0000000800000008UL,
  0x0000000800000008UL, 0x000000c900000008UL, 0x0000001100000011UL, 0x0000001100000011UL,
  0x0000001100000011UL, 0x0000001100000011UL, 0x0000001100000011UL, 0x0000001100000011UL,
  0x5a000683000000d2UL, 0x0000c00000000000UL, 0x0000c00000000000UL, 0x0000c08000000000UL,
  0x0000c08000000000UL, 0x0000c08000000000UL, 0x0000c10000000000UL, 0x0000c10000000000UL,
  0x0000c10000000000UL, 0x0000d76217770000UL, 0x0000da8000000000UL, 0x0000da8000000000UL,
  0x0000db8000000000UL, 0x0000dc8000000000UL, 0x0000dd0000000000UL, 0x0000de0000000000UL,
  0x0000df0000000000UL, 0x0000e00000000000UL, 0x0000caeb75550000UL, 0x0000390000000000UL,
  0x00003a0000000000UL, 0x00003a8000000000UL, 0x00003b8000000000UL, 0x00003c8000000000UL,
  0x00003d8000000000UL, 0x00003e8000000000UL, 0x00003f8000000000UL, 0x28007c00008020a1UL,
  0x280201230008c000UL, 0x000d000d342f5200UL, 0x00000d0001000008UL, 0x0000000800000020UL,
  0x0000002400000000UL, 0x280c004200100000UL, 0x0000000700000006UL, 0x00000400280d0043UL,
  0x28110043342ffb3fUL, 0x0000000000000000UL, 0x20007c0000802061UL, 0x200200430008c184UL,
  0x0012000070c80000UL, 0x00000000200500c3UL, 0x0000000000000000UL, 0x0000002400000000UL,
  0x200c004200100000UL, 0x0000000700000006UL, 0x00000001200d0043UL, 0x2011004370da003fUL,
  0x0000000800000000UL, 0x2c007c00008020c1UL, 0x2c0200430088c100UL, 0x000002a4343064a0UL,
  0x000000002c0500c3UL, 0x0000000000000000UL, 0x0000002400000000UL, 0x2c0c004201900000UL,
  0x0000000700000006UL, 0x000004002c0d0043UL, 0x2c11004334306a27UL, 0x0000000000000000UL,
  0x24007c0000802081UL, 0x240201230008c000UL, 0x000d000d342f5208UL, 0x00000d0001000008UL,
  0x0000000800000020UL, 0x0000002400000000UL, 0x240c004200100000UL, 0x0000000700000006UL,
  0x00000400240d0043UL, 0x24110043342ffb3fUL, 0x0000000000000000UL, 0x30007c00008020e1UL,
  0x300201230008c000UL, 0x000d000d342f5210UL, 0x00000d0001000008UL, 0x0000000800000020UL,
  0x0000002400000000UL, 0x300c004200100000UL, 0x0000000700000006UL, 0x00000400300d0043UL,
  0x30110043342ffb3fUL, 0x0000000000000000UL, 0x14007c0000802001UL, 0x140201230008c000UL,
  0x000d000d342f5218UL, 0x00000d0001000008UL, 0x0000000800000020UL, 0x0000002400000000UL,
  0x140c004200100000UL, 0x0000000700000006UL, 0x00000400140d0043UL, 0x14110043342ffb3fUL,
  0x0000000000000000UL, 0x18007c0000802021UL, 0x1802004300880108UL, 0x000002a4343064a0UL,
  0x00000000180500c3UL, 0x0000000000000000UL, 0x0000002400000000UL, 0x180c004200100000UL,
  0x0000000700000006UL, 0x00000400180d0043UL, 0x1811004334306a27UL, 0x0000000000000000UL,
  0x1c007c0000802041UL, 0x1c02012300080008UL, 0x000d000d3431f600UL, 0x00001a0002000004UL,
  0x0000008000000004UL, 0x0000002400015200UL, 0x1c0c004200100000UL, 0x0000000700000006UL,
  0x000000801c0d0043UL, 0x1c1100433433483fUL, 0x0000000000000000UL, 0x0000000210007c00UL,
  0x0000006410000424UL, 0x10007c0000000000UL, 0x10007bc440000000UL, 0x0000000000000064UL,
  0x0000000110007c00UL, 0x0000001b10030043UL, 0x100c018300000023UL, 0x000000070000000bUL,
  0x000000090000000dUL, 0x0000001500000007UL, 0x000000070000000fUL, 0x0000000100000017UL,
  0x0000001900000007UL, 0x0000002b101d7c00UL, 0x011b071a10247c00UL, 0x1c00200118002001UL,
  0x000003513c007c00UL, 0x0000004140007c00UL, 0x0000004144007c00UL, 0x0000004148007c00UL,
  0x6800200158002001UL, 0x2000200114002001UL, 0x2800200124002001UL, 0x300020012c002001UL,
  0x0000006418007fe4UL, 0x1c007fe400000000UL, 0x0000000000000064UL, 0x0000000010030043UL,
  0x100c018300000000UL, 0x0000000000000000UL, 0x0000000000000000UL, 0x0000000000000000UL,
  0x0000000000000000UL, 0x0000000000000000UL, 0x0000000000000000UL, 0x00000000101d7c00UL,
  0x0000000010247c00UL, 0x0000000218007c00UL, 0x0000006418000424UL, 0x18007c0000000000UL,
  0x18007bc440000000UL, 0x0000000000000064UL, 0x1c007c0000800021UL, 0x1c00042400000002UL,
  0x0000000000000064UL, 0x400000001c007c00UL, 0x000000641c007bc4UL, 0x0080004100000000UL,
  0x000000023c007c00UL, 0x000000643c000424UL, 0x3c007c0000000000UL, 0x3c007bc440000000UL,
  0x0000000000000064UL, 0x40007c0000800141UL, 0x4000042400000002UL, 0x0000000000000064UL,
  0x4000000040007c00UL, 0x0000006440007bc4UL, 0x0080016100000000UL, 0x0000000244007c00UL,
  0x0000006444000424UL, 0x44007c0000000000UL, 0x44007bc440000000UL, 0x0000000000000064UL,
  0x48007c0000800181UL, 0x4800042400000002UL, 0x0000000000000064UL, 0x4000000048007c00UL,
  0x0000006448007bc4UL, 0x008001a100000000UL, 0x0088108258007c00UL, 0x0000006458000424UL,
  0x58007c0000000000UL, 0x58007bc440881080UL, 0x0000000000000064UL, 0x68007c0000800221UL,
  0x6800042408000002UL, 0x0000000000000064UL, 0x4800000068007c00UL, 0x0000006468007bc4UL,
  0x008002a100000000UL, 0x0000000214007c00UL, 0x0000006414000424UL, 0x14007c0000000000UL,
  0x14007bc440000000UL, 0x0000000000000064UL, 0x20007c0000800001UL, 0x2000042400000002UL,
  0x0000000000000064UL, 0x4000000020007c00UL, 0x0000006420007bc4UL, 0x0080006100000000UL,
  0x0000000224007c00UL, 0x0000006424000424UL, 0x24007c0000000000UL, 0x24007bc440000000UL,
  0x0000000000000064UL, 0x28007c0000800081UL, 0x2800042400000002UL, 0x0000000000000064UL,
  0x4000000028007c00UL, 0x0000006428007bc4UL, 0x008000a100000000UL, 0x000000022c007c00UL,
  0x000000642c000424UL, 0x2c007c0000000000UL, 0x2c007bc440000000UL, 0x0000000000000064UL,
  0x30007c00008000c1UL, 0x3000042400000002UL, 0x0000000000000064UL, 0x4000000030007c00UL,
  0x0000006430007bc4UL, 0x008000e100000000UL, 0x008021410000015dUL, 0x000000343c007c00UL,
  0x010101013c0200e3UL, 0x1053400000001100UL, 0x000c0000000d000dUL, 0x00000001000c0000UL,
  0x010001003c0a7c00UL, 0x0000ff803c0d7c00UL, 0x70007c00008022e1UL, 0x700200e30041c0c0UL,
  0x000e000e04000452UL, 0x00000000000d000dUL, 0x000d0000000d0000UL, 0x0080212100050001UL,
  0x0008000038007c00UL, 0x3431f60038020123UL, 0x02000001000d000dUL, 0x0000000000001a00UL,
  0x0000000100000001UL, 0x0010000000000024UL, 0x00000006380c0042UL, 0x380d004300000007UL,
  0x3433483f00000200UL, 0x0000000038110043UL, 0x008020a100000000UL, 0x0008018428007c00UL,
  0x70e1060028020043UL, 0x280500c300000200UL, 0x0000000000000000UL, 0x0000000000000000UL,
  0x0010000000000024UL, 0x00000006280c0042UL, 0x280d004300000007UL, 0x70e1083f00000001UL,
  0x0000000028110043UL, 0x0080200100000008UL, 0x0008000814007c00UL, 0x3430a40014020123UL,
  0x02000001000d000dUL, 0x0000000100001a00UL, 0x0001520000000200UL, 0x0010000000000024UL,
  0x00000006140c0042UL, 0x140d004300000007UL, 0x3431f63f00000200UL, 0x0000000014110043UL,
  0x10007c0000000000UL, 0x1000042400000002UL, 0x0000000000000064UL, 0x4000000010007c00UL,
  0x0000006410007bc4UL, 0x10007c0000000000UL, 0x10027c0000000001UL, 0x100c00430000002fUL,
  0x0000000b00000013UL, 0x0000001510277c00UL, 0x3c007c0014002001UL, 0x7000200100000035UL,
  0x3800200128002001UL, 0x0000006414007fe4UL, 0x10027c0000000000UL, 0x100c004300000000UL,
  0x0000000000000000UL, 0x0000000010277c00UL, 0x0000000214007c00UL, 0x0000006414000424UL,
  0x14007c0000000000UL, 0x14007bc440000000UL, 0x0000000000000064UL, 0x3c007c0000800001UL,
  0x3c00042400000002UL, 0x0000000000000064UL, 0x400000003c007c00UL, 0x000000643c007bc4UL,
  0x0080014100000000UL, 0x0042000270007c00UL, 0x0000006470000424UL, 0x70007c0000000000UL,
  0x70007bc440420000UL, 0x0000000000000064UL, 0x28007c00008002e1UL, 0x2800042400000002UL,
  0x0000000000000064UL, 0x4000000028007c00UL, 0x0000006428007bc4UL, 0x008000a100000000UL,
  0x0000000238007c00UL, 0x0000006438000424UL, 0x38007c0000000000UL, 0x38007bc440000000UL,
  0x0000000000000064UL, 0x0000017d00800121UL, 0x40007c0000802161UL, 0x4002012300000350UL,
  0x0000115504080303UL, 0x000d006810b74109UL, 0x000c000000670000UL, 0x000f011000030010UL,
  0x400c004300000000UL, 0x0000000000ffffb5UL, 0x44007c0000802181UL, 0x440200e300000040UL,
  0x0000115504080303UL, 0x000d006810b74101UL, 0x000c000000670000UL, 0x440a7c0000070410UL,
  0x440c004300000000UL, 0x0000000000ffffb5UL, 0x48007c00008021a1UL, 0x480200e300000040UL,
  0x0000115504080303UL, 0x000d006810b74101UL, 0x000c000000670000UL, 0x480a7c00000b0810UL,
  0x480c004300000000UL, 0x0000000000ffffb5UL, 0x3c007c0000802141UL, 0x3c0200e300000040UL,
  0x0000115504080303UL, 0x000d006810a34901UL, 0x000c000000670000UL, 0x3c0a7c00000f0c10UL,
  0x3c0c004300000000UL, 0x0000000000ffffb5UL, 0x5c00004200802241UL, 0x09000f6008000000UL,
  0x000500005c027c00UL, 0x000100015c070043UL, 0x5c0c004300000001UL, 0x2042204200000000UL,
  0x6000004200802261UL, 0x0500016008000000UL, 0x000a180060027c00UL, 0x4000442e60070043UL,
  0x600c00430000442eUL, 0x2042204200000000UL, 0x54007c0000802201UL, 0x540200430174104cUL,
  0x0290120f00087f80UL, 0x000000c055000403UL, 0x0000000800000008UL, 0x0000000800000008UL,
  0x0000000800000008UL, 0x0000000800000008UL, 0x0000000800000008UL, 0x0000000800000008UL,
  0x0000000800000008UL, 0x000000c900000008UL, 0x0000001100000011UL, 0x0000001100000011UL,
  0x0000001100000011UL, 0x0000001100000011UL, 0x0000001100000011UL, 0x0000001100000011UL,
  0x0000001100000011UL, 0x56000683000000d2UL, 0x0000c00000000000UL, 0x0000c00000000000UL,
  0x0000c00000000000UL, 0x0000c08000000000UL, 0x0000c08000000000UL, 0x0000c08000000000UL,
  0x0000c10000000000UL, 0x0000c10000000000UL, 0x0000d55515860000UL, 0x0000d58000000000UL,
  0x0000d58000000000UL, 0x0000d68000000000UL, 0x0000d70000000000UL, 0x0000d80000000000UL,
  0x0000d90000000000UL, 0x0000d98000000000UL, 0x0000da8000000000UL, 0x0000d4a96ba00000UL,
  0x0000398000000000UL, 0x00003a8000000000UL, 0x00003b0000000000UL, 0x00003c0000000000UL,
  0x00003d0000000000UL, 0x00003e0000000000UL, 0x00003e8000000000UL, 0x00003f8000000000UL,
  0x24007c0000802081UL, 0x240201230008c000UL, 0x000d000d3430a400UL, 0x00001a0002000008UL,
  0x0000001000000020UL, 0x0000002400000000UL, 0x240c004200100000UL, 0x0000000700000006UL,
  0x00001000240d0043UL, 0x241100433431f63fUL, 0x0000000000000000UL, 0x28007c00008020a1UL,
  0x280200430008c184UL, 0x0048000070380000UL, 0x00000000280500c3UL, 0x0000000000000000UL,
  0x0000002400000000UL, 0x280c004200100000UL, 0x0000000700000006UL, 0x00000001280d0043UL,
  0x281100437080003fUL, 0x0000000800000000UL, 0x20007c0000802061UL, 0x200200430088c100UL,
  0x000002a43431f600UL, 0x00000000200500c3UL, 0x0000000000000000UL, 0x0000002400000000UL,
  0x200c004208900000UL, 0x0000000700000006UL, 0x00001000200d0043UL, 0x201100433431fb87UL,
  0x0000000000000000UL, 0x14007c0000802001UL, 0x140201230008c000UL, 0x000d000d3430a408UL,
  0x00001a0002000008UL, 0x0000001000000020UL, 0x0000002400000000UL, 0x140c004200100000UL,
  0x0000000700000006UL, 0x00001000140d0043UL, 0x141100433431f63fUL, 0x0000000000000000UL,
  0x1c007c0000802041UL, 0x1c0201230008c000UL, 0x000d000d3430a410UL, 0x00001a0002000008UL,
  0x0000001000000020UL, 0x0000002400000000UL, 0x1c0c004200100000UL, 0x0000000700000006UL,
  0x000010001c0d0043UL, 0x1c1100433431f63fUL, 0x0000000000000000UL, 0x18007c0000802021UL,
  0x180201230008c000UL, 0x000d000d3430a418UL, 0x00001a0002000008UL, 0x0000001000000020UL,
  0x0000002400000000UL, 0x180c004200100000UL, 0x0000000700000006UL, 0x00001000180d0043UL,
  0x181100433431f63fUL, 0x0000000000000000UL, 0x38007c0000802121UL, 0x3802004300880100UL,
  0x0000003470dfa000UL, 0x00000000380500c3UL, 0x0000000d00000000UL, 0x0000002400000068UL,
  0x380c004200100000UL, 0x0000000700000006UL, 0x00000d00380d0043UL, 0x3811004370e0083fUL,
  0x0000001800000000UL, 0x30007c00008020e1UL, 0x3002004300880100UL, 0x0000003470e00800UL,
  0x00000000300500c3UL, 0x0000000d00000000UL, 0x0000002400000068UL, 0x300c004200100000UL,
  0x0000000700000006UL, 0x00000d00300d0043UL, 0x3011004370e0703fUL, 0x0000001800000000UL,
  0x34007c0000802101UL, 0x3402004300880108UL, 0x000002a43431f600UL, 0x00000000340500c3UL,
  0x0000000000000000UL, 0x0000002400000000UL, 0x340c004200100000UL, 0x0000000700000006UL,
  0x00001000340d0043UL, 0x341100433431fb87UL, 0x0000000000000000UL, 0x2c007c00008020c1UL,
  0x2c02012300080008UL, 0x000d000d342e0000UL, 0x0000340004000004UL, 0x0000010000000004UL,
  0x000000240002a400UL, 0x2c0c004200100000UL, 0x0000000700000006UL, 0x000001002c0d0043UL,
  0x2c1100433430a43fUL, 0x0000000000000000UL, 0x0000000210007c00UL, 0x0000006410000424UL,
  0x10007c0000000000UL, 0x10007bc440000000UL, 0x0000000000000064UL, 0x0000000110007c00UL,
  0x0000002110087c00UL, 0x00000015100a7c00UL, 0x00000003100c0183UL, 0x0000001b0000000bUL,
  0x0000000b00000009UL, 0x0000000100000007UL, 0x000000170000000bUL, 0x0000000b00000005UL,
  0x101c7c0000000019UL, 0x101e008300000027UL, 0x0000001301150f14UL, 0x0000000f00000025UL,
  0x340020012c002001UL, 0x000000413c007c00UL, 0x0000035140007c00UL, 0x0000004144007c00UL,
  0x0000004148007c00UL, 0x5c00200154002001UL, 0x1400200160002001UL, 0x1c00200118002001UL,
  0x2400200120002001UL, 0x3000200128002001UL, 0x2c007fe438002001UL, 0x0000000000000064UL,
  0x0000006434007fe4UL, 0x10087c0000000000UL, 0x100a7c0000000000UL, 0x100c018300000000UL,
  0x0000000000000000UL, 0x0000000000000000UL, 0x0000000000000000UL, 0x0000000000000000UL,
  0x0000000000000000UL, 0x0000000000000000UL, 0x00000000101c7c00UL, 0x00000000101e0083UL,
  0x0000000000000000UL, 0x2c007c0000000000UL, 0x2c00042400000002UL, 0x0000000000000064UL,
  0x400000002c007c00UL, 0x000000642c007bc4UL, 0x008000c100000000UL, 0x0000000234007c00UL,
  0x0000006434000424UL, 0x34007c0000000000UL, 0x34007bc440000000UL, 0x0000000000000064UL,
  0x3c007c0000800101UL, 0x3c00042400000002UL, 0x0000000000000064UL, 0x400000003c007c00UL,
  0x000000643c007bc4UL, 0x0080014100000000UL, 0x0000000240007c00UL, 0x0000006440000424UL,
  0x40007c0000000000UL, 0x40007bc440000000UL, 0x0000000000000064UL, 0x44007c0000800161UL,
  0x4400042400000002UL, 0x0000000000000064UL, 0x4000000044007c00UL, 0x0000006444007bc4UL,
  0x0080018100000000UL, 0x0000000248007c00UL, 0x0000006448000424UL, 0x48007c0000000000UL,
  0x48007bc440000000UL, 0x0000000000000064UL, 0x54007c00008001a1UL, 0x5400042400881082UL,
  0x0000000000000064UL, 0x4088108054007c00UL, 0x0000006454007bc4UL, 0x0080020100000000UL,
  0x080000025c007c00UL, 0x000000645c000424UL, 0x5c007c0000000000UL, 0x5c007bc448000000UL,
  0x0000000000000064UL, 0x60007c0000800241UL, 0x6000042408000002UL, 0x0000000000000064UL,
  0x4800000060007c00UL, 0x0000006460007bc4UL, 0x0080026100000000UL, 0x0000000214007c00UL,
  0x0000006414000424UL, 0x14007c0000000000UL, 0x14007bc440000000UL, 0x0000000000000064UL,
  0x18007c0000800001UL, 0x1800042400000002UL, 0x0000000000000064UL, 0x4000000018007c00UL,
  0x0000006418007bc4UL, 0x0080002100000000UL, 0x000000021c007c00UL, 0x000000641c000424UL,
  0x1c007c0000000000UL, 0x1c007bc440000000UL, 0x0000000000000064UL, 0x20007c0000800041UL,
  0x2000042400000002UL, 0x0000000000000064UL, 0x4000000020007c00UL, 0x0000006420007bc4UL,
  0x0080006100000000UL, 0x0000000224007c00UL, 0x0000006424000424UL, 0x24007c0000000000UL,
  0x24007bc440000000UL, 0x0000000000000064UL, 0x28007c0000800081UL, 0x2800042400000002UL,
  0x0000000000000064UL, 0x4000000028007c00UL, 0x0000006428007bc4UL, 0x008000a100000000UL,
  0x0000000230007c00UL, 0x0000006430000424UL, 0x30007c0000000000UL, 0x30007bc440000000UL,
  0x0000000000000064UL, 0x38007c00008000e1UL, 0x3800042400000002UL, 0x0000000000000064UL,
  0x4000000038007c00UL, 0x0000006438007bc4UL, 0x0080012100000000UL, 0x008021410000019dUL,
  0x000003503c007c00UL, 0x040803033c020123UL, 0x10b7420a00001155UL, 0x00670000000d0068UL,
  0x00030010000c0000UL, 0x00000000001f0120UL, 0x00ffffab3c0c0043UL, 0x0080216100000000UL,
  0x0000004040007c00UL, 0x04080303400200e3UL, 0x10b7420200001155UL, 0x00670000000d0068UL,
  0x00070410000c0000UL, 0x00000000400a7c00UL, 0x00ffffab400c0043UL, 0x0080218100000000UL,
  0x0000004044007c00UL, 0x04080303440200e3UL, 0x10b7420200001155UL, 0x00670000000d0068UL,
  0x000b0810000c0000UL, 0x00000000440a7c00UL, 0x00ffffab440c0043UL, 0x008021a100000000UL,
  0x0000004048007c00UL, 0x04080303480200e3UL, 0x10a34a0200001155UL, 0x00670000000d0068UL,
  0x000f0c10000c0000UL, 0x00000000480a7c00UL, 0x00ffffab480c0043UL, 0x0080228100000000UL,
  0x0800000064000042UL, 0x64020123156000fcUL, 0x0000000000070000UL, 0x000002a300000003UL,
  0x00000000000151ffUL, 0x000403fd00000000UL, 0x640c004300000001UL, 0x2042204200000000UL,
  0x00000001640b7c00UL, 0x0007022865006003UL, 0x0007075d0000394fUL, 0x000509ab0000f6d8UL,
  0x000607df0000983dUL, 0x000704120000ef1aUL, 0x000705940000066fUL, 0x000606f800004845UL,
  0x0007060b0000ded0UL, 0x00060dd000008bf9UL, 0x00070a90000099c4UL, 0x00060c5600009458UL,
  0x000708d6000047edUL, 0x00060c630000a8f5UL, 0x0007055400003bedUL, 0x00060aa500002692UL,
  0x00080bb90000458bUL, 0x000707510000025cUL, 0x000607fe0000198aUL, 0x0007086a0000742bUL,
  0x000606d500007bc2UL, 0x000704830000f4f6UL, 0x00070be200002169UL, 0x000808ee00008eb9UL,
  0x0006110800003e7fUL, 0x000808e70000c15eUL, 0x00070aba00001d69UL, 0x000709c50000021bUL,
  0x000611c0000091a1UL, 0x000509f30000d800UL, 0x00070a8a0000c54aUL, 0x00070be300002230UL,
  0x00080d4300000f80UL, 0x00060b4f0000511aUL, 0x000508a80000154bUL, 0x000605640000d465UL,
  0x0006106100007833UL, 0x00060c2c00003e57UL, 0x0007065f0000d47eUL, 0x0007055a0000fc20UL,
  0x0006119b0000e3d3UL, 0x000717fe0000257cUL, 0x0006092700003eb3UL, 0x000605370000344fUL,
  0x000607a700007cbbUL, 0x000603d10000a90eUL, 0x000609d800008a0eUL, 0x000706e40000c0a7UL,
  0x000609080000598dUL, 0x00060b7100007316UL, 0x0006098b00005f2aUL, 0x000609050000d83dUL,
  0x00060c15000055b9UL, 0x00071f9800009d04UL, 0x000605f40000ec43UL, 0x0006033800007b9dUL,
  0x000607540000843dUL, 0x00060bc00000487aUL, 0x00060c8200003082UL, 0x000707af00004c84UL,
  0x0006070600002328UL, 0x000804050000c4daUL, 0x00080d9a00002afaUL, 0x0006033a0000910dUL,
  0x000708210000b92eUL, 0x0006060200007701UL, 0x00070c4800005c48UL, 0x00070a1700000f2fUL,
  0x000607b400000950UL, 0x000704fc00002c5eUL, 0x00080ad70000fdb5UL, 0x0006125800006b7eUL,
  0x000706af0000a07fUL, 0x000609ee00002f82UL, 0x000608be00006496UL, 0x00050ed1000075d2UL,
  0x000707290000c4f3UL, 0x0005055500003c78UL, 0x000608620000c701UL, 0x000709ae000067f4UL,
  0x0006128200003141UL, 0x0005051f00006cb3UL, 0x0007196b00008dc2UL, 0x000608fb00008f56UL,
  0x00080d19000086c5UL, 0x0005120700000028UL, 0x00070d5700004ccfUL, 0x0007042200002fb2UL,
  0x0006128e00000ebdUL, 0x0006089c0000a0abUL, 0x000607f600000d2eUL, 0x00060b0d00008d69UL,
  0x00060dcf00001160UL, 0x00070f400000d431UL, 0x00070c8800006be8UL, 0x000710380000453dUL,
  0x00060da30000e068UL, 0x000704110000de2eUL, 0x00050b1e0000c9b6UL, 0x0007088e00005994UL,
  0x00070e9b00006d95UL, 0x000607df00001688UL, 0x00060ab00000da50UL, 0x00060d4e00004fdbUL,
  0x000805210000ab77UL, 0x000705f7000010d1UL, 0x00060f7f0000387eUL, 0x000703e20000e1a0UL,
  0x0005097f00005d68UL, 0x0007077d0000e335UL, 0x000610020000c6bbUL, 0x000702e40000fd1dUL,
  0x0006101f0000a6f0UL, 0x0006060d00001c80UL, 0x00060ca20000dd41UL, 0x00060a3600009495UL,
  0x000512b700008f6dUL, 0x00070a4c00008326UL, 0x00070ab10000250cUL, 0x000611ea00004285UL,
  0x0006054100003992UL, 0x000809f900008c0dUL, 0x000608a400002f6cUL, 0x00060405000091c0UL,
  0x000706970000d767UL, 0x00070c3100007d6eUL, 0x00060b1300006ce4UL, 0x000706de00004802UL,
  0x00070b9a000033cbUL, 0x0005098e00002404UL, 0x00060a690000fdc4UL, 0x00060dfe0000e64cUL,
  0x00070bf90000e3d4UL, 0x00060bb800008ba8UL, 0x000605490000aa40UL, 0x00060fd9000092cbUL,
  0x00050e7b0000723eUL, 0x00070b4b0000afe4UL, 0x00060aef000096a9UL, 0x00040b5300000085UL,
  0x000721050000e96cUL, 0x000702cd0000bb8eUL, 0x000604bc00003448UL, 0x000608090000ec8aUL,
  0x000611400000d1e9UL, 0x000703aa00006fa6UL, 0x000605a6000025eaUL, 0x00050aa30000a9eaUL,
  0x00061d9a0000c29cUL, 0x00070af70000e625UL, 0x00070cae00006f8dUL, 0x0007079f0000b055UL,
  0x000609590000009eUL, 0x0006097f0000260dUL, 0x00060b4500005bf2UL, 0x00060eab0000c24fUL,
  0x00060b210000c4e4UL, 0x0006076500006212UL, 0x0006178e0000b01bUL, 0x00060ddf0000d6d2UL,
  0x0006073300008d63UL, 0x000608320000a8f5UL, 0x00060a040000e75eUL, 0x00050e5f000097e6UL,
  0x000717ef00004bd7UL, 0x000708670000bf88UL, 0x00070a620000a880UL, 0x00050f5b00002582UL,
  0x00070f0b0000ce83UL, 0x00070cd00000fef3UL, 0x000508ba00007c25UL, 0x000717b30000f5caUL,
  0x0007097f00000477UL, 0x00070c8f0000be88UL, 0x0008070900006e54UL, 0x00060c2d00002670UL,
  0x00070d14000072edUL, 0x0007061e0000f76aUL, 0x0007100600006b4fUL, 0x000607ca00004174UL,
  0x00050bb50000aad0UL, 0x000708ca0000b27bUL, 0x00040f2100002a0cUL, 0x000708710000e69dUL,
  0x000706430000cf76UL, 0x00060a0b0000c5ddUL, 0x000607cc00002bc6UL, 0x000608980000e511UL,
  0x000607e500000b68UL, 0x000607b800000fcdUL, 0x00060cab0000291fUL, 0x000608e200008a64UL,
  0x000605de00003167UL, 0x00060ba00000012cUL, 0x000706ea000039f1UL, 0x00060d0c0000660bUL,
  0x000607b300001331UL, 0x00060c950000fa12UL, 0x0006084900006511UL, 0x00050f360000e566UL,
  0x00060b940000ca05UL, 0x000806ca000075ebUL, 0x00070544000029daUL, 0x00070cdd0000525eUL,
  0x00060649000070c3UL, 0x0007045600008a02UL, 0x000604530000051aUL, 0x0006181d00000255UL,
  0x00060c4500002175UL, 0x000703e800001c82UL, 0x0006110000003774UL, 0x00060c9a0000638bUL,
  0x000609270000e03cUL, 0x000507ae00005f51UL, 0x000607770000bd67UL, 0x000707c400002fd7UL,
  0x00060dd80000ca86UL, 0x000609b000006c95UL, 0x0006092500002102UL, 0x000604140000b9caUL,
  0x00060da30000e890UL, 0x00060cac0000a20fUL, 0x000611550000be33UL, 0x0006085700003f25UL,
  0x0006090000006bf7UL, 0x0007061300006e29UL, 0x00060bea000074c6UL, 0x00051b2e000030f3UL,
  0x00070b8f0000b121UL, 0x000706ba00007802UL, 0x000605df00006262UL, 0x00060e520000530fUL,
  0x00060c1800008e0dUL, 0x0008065400008c00UL, 0x0007102b000096a7UL, 0x0006076000008d1aUL,
  0x00060af50000d98cUL, 0x00060564000060eeUL, 0x0007021100009f57UL, 0x0007096100005230UL,
  0x0006066c00006416UL, 0x0007058500005c0dUL, 0x000607e300008ddcUL, 0x00060be90000b516UL,
  0x000822bb00007332UL, 0x000709c900003fc1UL, 0x0005121a00006f2eUL, 0x000608e90000e443UL,
  0x00080a400000881eUL, 0x00070ab40000124dUL, 0x000617fb000028d5UL, 0x0005179f00004491UL,
  0x000709690000bcb3UL, 0x0006103900000fa8UL, 0x0007043c0000a1faUL, 0x00060e1000001b57UL,
  0x00070b010000cf83UL, 0x000511d100001eb4UL, 0x0007060e0000fa27UL, 0x00070b2c0000c854UL,
  0x00050ccd00007369UL, 0x00060bba0000d1e6UL, 0x000702a20000cb90UL, 0x000609ac0000dd75UL,
  0x00050aff0000ce96UL, 0x00070dbf0000f0e0UL, 0x000611ce0000657cUL, 0x000604e2000029e5UL,
  0x0006114d00008b21UL, 0x000605250000d1a4UL, 0x000707ae0000aa0bUL, 0x0006070400009b08UL,
  0x000608100000acffUL, 0x00060a930000005eUL, 0x00050c2e0000558dUL, 0x0007065f0000b6ffUL,
  0x0007085f00003a1cUL, 0x00060ea000005c17UL, 0x00060be800004a82UL, 0x000721ef00003cb2UL,
  0x0007085200007d3fUL, 0x0006093900002db5UL, 0x00060a1100000572UL, 0x000708dc000092bcUL,
  0x000607c7000007a7UL, 0x000607390000a3f6UL, 0x000709a0000099ccUL, 0x00071a380000c2e6UL,
  0x0007055500000be2UL, 0x0006074f0000245aUL, 0x0007081e00005f8cUL, 0x000706b800001c38UL,
  0x000707a20000f868UL, 0x0006065e00001874UL, 0x000804640000af6cUL, 0x000719d200000308UL,
  0x00070dc800009527UL, 0x000608d6000030acUL, 0x00071240000049ccUL, 0x00050de90000411eUL,
  0x000605b00000cbceUL, 0x000706e900009b6bUL, 0x00070f9700002938UL, 0x000505a300003eccUL,
  0x00070fba0000fba8UL, 0x000605dc000042b3UL, 0x0006048c0000378dUL, 0x0007079900007d0dUL,
  0x0006237a00004648UL, 0x000608ab0000897cUL, 0x0006148b0000e66aUL, 0x00060a9000001b2eUL,
  0x00060a5200008dedUL, 0x00060b2f00001958UL, 0x0007114d00004d43UL, 0x00060e2b00004f1eUL,
  0x00060e550000455cUL, 0x000611770000a686UL, 0x00080fb90000b2f3UL, 0x0007065c00000cadUL,
  0x000608cc000033e8UL, 0x000611740000fc41UL, 0x00071d9d000048cbUL, 0x000609b9000073c4UL,
  0x000603f000003d02UL, 0x00064e370000111bUL, 0x00070c3b00007e96UL, 0x000609fd00004915UL,
  0x00060d0c0000271bUL, 0x00060ed400007db8UL, 0x0006071d0000c8d1UL, 0x0007122e00001c4fUL,
  0x00070ce600001383UL, 0x0006073300005fd5UL, 0x00061b730000e632UL, 0x00060d680000d85dUL,
  0x000607410000d6d4UL, 0x00060b1c0000dd29UL, 0x00060c4b0000775fUL, 0x00060c6100009464UL,
  0x0006035600001aa0UL, 0x00060d210000fdb5UL, 0x00050aa100002549UL, 0x00080af90000e4eaUL,
  0x0007069600001cefUL, 0x0005093b00007102UL, 0x00081d7f0000603dUL, 0x00061c1700000e78UL,
  0x000911a50000c298UL, 0x00061d37000055b3UL, 0x000604ed0000d284UL, 0x00060c0500005880UL,
  0x000505790000f8adUL, 0x00070f040000b110UL, 0x000608e80000ad08UL, 0x00060cd300009275UL,
  0x00080e30000045a5UL, 0x00070af40000b405UL, 0x00070ebf0000ef22UL, 0x00061b0500003cbfUL,
  0x0006098c00004c80UL, 0x00060a5f0000c0ffUL, 0x00060cb0000003f3UL, 0x0006077d00006d26UL,
  0x000709410000fe9bUL, 0x000612e8000055a7UL, 0x00050cfc0000f066UL, 0x00060a10000019dfUL,
  0x000808950000f6dfUL, 0x0008171300003b49UL, 0x00060b1c00001040UL, 0x0007102e000030c2UL,
  0x00060a9d00007b87UL, 0x0007157b00003992UL, 0x000704a2000034e6UL, 0x0007098b00001101UL,
  0x0008077a00000359UL, 0x00060c2d0000a785UL, 0x0007074900009d7fUL, 0x00050918000033acUL,
  0x00060f1c00008746UL, 0x000607720000dc41UL, 0x00060c6c00000bffUL, 0x000513ac0000d47bUL,
  0x00050bad000065bdUL, 0x640b7c0000008228UL, 0x6700200300000000UL, 0x0000fb16000615eeUL,
  0x0000aa3c0007067cUL, 0x000003d500070609UL, 0x00008c7c000609e7UL, 0x00005bf90006080eUL,
  0x00006a3400060710UL, 0x00002b5500070926UL, 0x00000ea600070641UL, 0x00006b29000608d7UL,
  0x0000bbdd00050e87UL, 0x0000e6af0006071cUL, 0x0000e34400050812UL, 0x0000c39600070562UL,
  0x0000915b0006092dUL, 0x0000840e00060627UL, 0x0000add000050850UL, 0x0000ddd500060a46UL,
  0x0000657400070eb5UL, 0x000024b200060cc9UL, 0x0000f65100060f8dUL, 0x00009604000605fdUL,
  0x000030d100070b3dUL, 0x0000c07b00060db7UL, 0x000011e100061272UL, 0x00003eae00061865UL,
  0x00003c2200070ed0UL, 0x0000aa32000607e8UL, 0x0000e29f000707f5UL, 0x00005ad8000707d3UL,
  0x000075a900070980UL, 0x0000770f00060b1fUL, 0x00001ce9000706a1UL, 0x00005ee20006127eUL,
  0x00009c080006083bUL, 0x0000320500051429UL, 0x0000b78a000604f6UL, 0x00002d1d0007100eUL,
  0x0000912700060b2cUL, 0x0000880e00061339UL, 0x000037b5000703c1UL, 0x0000557e000709d6UL,
  0x00005aa000070a4aUL, 0x0000ac7c00063461UL, 0x00006b1700060f68UL, 0x00008d2c00070710UL,
  0x0000322a00060a96UL, 0x0000a2e200060368UL, 0x000036e0000709c3UL, 0x0000457a000706e4UL,
  0x0000b30e0006076aUL, 0x0000fa1b0004157bUL, 0x000019e1000703feUL, 0x0000f0c000050e5dUL,
  0x0000cea800050af8UL, 0x0000119300070654UL, 0x0000e1ba00061008UL, 0x0000e936000602f7UL,
  0x0000e4f800060931UL, 0x0000f58d0005059dUL, 0x000046f0000602aeUL, 0x00000efd00080b84UL,
  0x0000d3350007101fUL, 0x0000e11c00070909UL, 0x00009178000803d9UL, 0x0000e1f800050a10UL,
  0x00001dd0000704bfUL, 0x0000026b000608baUL, 0x000065bf00071784UL, 0x0000c0cb000707e5UL,
  0x0000bf520006088bUL, 0x000017a000060844UL, 0x0000e14800060762UL, 0x00003780000707bbUL,
  0x000060ed000708ebUL, 0x00002796000706acUL, 0x00004a7f00070b2fUL, 0x0000af19000607f3UL,
  0x00003e82000708bbUL, 0x00006fe70007073bUL, 0x0000c3ca00060e44UL, 0x0000a61c00060516UL,
  0x0000421c00050e23UL, 0x0000b55e0006188bUL, 0x00006fc900061297UL, 0x0000bbe400060ae1UL,
  0x000054e600060807UL, 0x000087b800050678UL, 0x00008c1b00070732UL, 0x0000d46b00060c4cUL,
  0x00005cb900070524UL, 0x0000640000080850UL, 0x0000ad7b000507f9UL, 0x00007dc100060b95UL,
  0x00003b9000071262UL, 0x00007c1800050e55UL, 0x0000193c000708ebUL, 0x0000207e00060ba1UL,
  0x00009df00006061dUL, 0x0000db9a000609c2UL, 0x0000f56100070a59UL, 0x000008b70007078fUL,
  0x000055e70008092fUL, 0x0000639f00070568UL, 0x00005109000704e3UL, 0x00009e33000709e1UL,
  0x0000fb5500060b8dUL, 0x000074b5000705e4UL, 0x0000736800070ac1UL, 0x0000410b00060ae4UL,
  0x0000b70f00060767UL, 0x0000efb100060e1bUL, 0x0000281c00070e77UL, 0x0000a94f00060761UL,
  0x00003e42000706d3UL, 0x0000ab8d0007069eUL, 0x0000d26a00060ffbUL, 0x00002f4c00060efdUL,
  0x00004149000707f5UL, 0x0000f81700060976UL, 0x0000446b00080547UL, 0x00002d45000605dfUL,
  0x00008a7600060971UL, 0x0000567800060e3dUL, 0x0000bbd200060d3aUL, 0x000014a700060d60UL,
  0x00001d21000604e5UL, 0x0000a6d100060773UL, 0x0000c9a200050620UL, 0x58007c0000802221UL,
  0x580200430174104cUL, 0x029011cf00087f80UL, 0x0000000059000403UL, 0x0000000000000000UL,
  0x0000000000000000UL, 0x0000000000000000UL, 0x0000000000000000UL, 0x0000000000000000UL,
  0x0000000000000000UL, 0x0000000000000000UL, 0x0000000000000000UL, 0x0000000000000000UL,
  0x00000009000000c1UL, 0x0000000900000009UL, 0x0000000900000009UL, 0x0000000900000009UL,
  0x0000000900000009UL, 0x0000000900000009UL, 0x5a000483000000caUL, 0x0000b31c195e0000UL,
  0x0000bd0000000000UL, 0x0000bd0000000000UL, 0x0000bd0000000000UL, 0x0000be0000000000UL,
  0x0000be0000000000UL, 0x0000bf0000000000UL, 0x0000bf0000000000UL, 0x0000c10000000000UL,
  0x0000838b7ed80000UL, 0x0000710000000000UL, 0x0000730000000000UL, 0x0000750000000000UL,
  0x0000770000000000UL, 0x0000790000000000UL, 0x00007b0000000000UL, 0x00007d0000000000UL,
  0x00007f0000000000UL, 0x38007c0000802121UL, 0x380201230008c000UL, 0x000d000d342e0000UL,
  0x0000340004000008UL, 0x0000002000000020UL, 0x0000002400000000UL, 0x380c004200100000UL,
  0x0000000700000006UL, 0x00001000380d0043UL, 0x381100433430a43fUL, 0x0000000000000000UL,
  0x1c007c0000802041UL, 0x1c0200430008c184UL, 0x0048000070800000UL, 0x000000001c0500c3UL,
  0x0000000000000000UL, 0x0000002400000000UL, 0x1c0c004200100000UL, 0x0000000700000006UL,
  0x000000011c0d0043UL, 0x1c11004370c8003fUL, 0x0000000800000000UL, 0x34007c0000802101UL,
  0x340200430088c100UL, 0x000002a434321da0UL, 0x00000000340500c3UL, 0x0000000000000000UL,
  0x0000002400000000UL, 0x340c004204900000UL, 0x0000000700000006UL, 0x00001000340d0043UL,
  0x3411004334322327UL, 0x0000000000000000UL, 0x2c007c00008020c1UL, 0x2c0201230008c000UL,
  0x000d000d342e0008UL, 0x0000340004000008UL, 0x0000002000000020UL, 0x0000002400000000UL,
  0x2c0c004200100000UL, 0x0000000700000006UL, 0x000010002c0d0043UL, 0x2c1100433430a43fUL,
  0x0000000000000000UL, 0x20007c0000802061UL, 0x200201230008c000UL, 0x000d000d342e0010UL,
  0x0000340004000008UL, 0x0000002000000020UL, 0x0000002400000000UL, 0x200c004200100000UL,
  0x0000000700000006UL, 0x00001000200d0043UL, 0x201100433430a43fUL, 0x0000000000000000UL,
  0x18007c0000802021UL, 0x180201230008c000UL, 0x000d000d342e0018UL, 0x0000340004000008UL,
  0x0000002000000020UL, 0x0000002400000000UL, 0x180c004200100000UL, 0x0000000700000006UL,
  0x00001000180d0043UL, 0x181100433430a43fUL, 0x0000000000000000UL, 0x24007c0000802081UL,
  0x2402004300880108UL, 0x000002a434321da0UL, 0x00000000240500c3UL, 0x0000000000000000UL,
  0x0000002400000000UL, 0x240c004200100000UL, 0x0000000700000006UL, 0x00001000240d0043UL,
  0x2411004334322327UL, 0x0000000000000000UL, 0x14007c0000802001UL, 0x1402012300080008UL,
  0x000d000d3430a400UL, 0x00001a0002000004UL, 0x0000008000000004UL, 0x0000002400015200UL,
  0x140c004200100000UL, 0x0000000700000006UL, 0x00000080140d0043UL, 0x141100433431f63fUL,
  0x0000000000000000UL, 0x0000000210007c00UL, 0x0000006410000424UL, 0x10007c0000000000UL,
  0x10007bc440000000UL, 0x0000000000000064UL, 0x0000000110007c00UL, 0x0000002310027c00UL,
  0x0000001b10067c00UL, 0x00000013100c0183UL, 0x0000001100000005UL, 0x000000050000000dUL,
  0x0000000700000015UL, 0x0000001700000005UL, 0x0000000500000003UL, 0x101d7c0000000019UL,
  0x10227c0000000029UL, 0x14002001011b1f1aUL, 0x3c007c0024002001UL, 0x40007c0000000351UL,
  0x44007c0000000041UL, 0x48007c0000000041UL, 0x5800200100000041UL, 0x1800200164002001UL,
  0x200020011c002001UL, 0x340020012c002001UL, 0x14007fe438002001UL, 0x0000000000000064UL,
  0x0000006424007fe4UL, 0x10027c0000000000UL, 0x10067c0000000000UL, 0x100c018300000000UL,
  0x0000000000000000UL, 0x0000000000000000UL, 0x0000000000000000UL, 0x0000000000000000UL,
  0x0000000000000000UL, 0x0000000000000000UL, 0x00000000101d7c00UL, 0x0000000010227c00UL,
  0x0000000214007c00UL, 0x0000006414000424UL, 0x14007c0000000000UL, 0x14007bc440000000UL,
  0x0000000000000064UL, 0x24007c0000800001UL, 0x2400042400000002UL, 0x0000000000000064UL,
  0x4000000024007c00UL, 0x0000006424007bc4UL, 0x0080008100000000UL, 0x000000023c007c00UL,
  0x000000643c000424UL, 0x3c007c0000000000UL, 0x3c007bc440000000UL, 0x0000000000000064UL,
  0x40007c0000800141UL, 0x4000042400000002UL, 0x0000000000000064UL, 0x4000000040007c00UL,
  0x0000006440007bc4UL, 0x0080016100000000UL, 0x0000000244007c00UL, 0x0000006444000424UL,
  0x44007c0000000000UL, 0x44007bc440000000UL, 0x0000000000000064UL, 0x48007c0000800181UL,
  0x4800042400000002UL, 0x0000000000000064UL, 0x4000000048007c00UL, 0x0000006448007bc4UL,
  0x008001a100000000UL, 0x0088108258007c00UL, 0x0000006458000424UL, 0x58007c0000000000UL,
  0x58007bc440881080UL, 0x0000000000000064UL, 0x64007c0000800221UL, 0x6400042408000002UL,
  0x0000000000000064UL, 0x4800000064007c00UL, 0x0000006464007bc4UL, 0x0080028100000000UL,
  0x0000000218007c00UL, 0x0000006418000424UL, 0x18007c0000000000UL, 0x18007bc440000000UL,
  0x0000000000000064UL, 0x1c007c0000800021UL, 0x1c00042400000002UL, 0x0000000000000064UL,
  0x400000001c007c00UL, 0x000000641c007bc4UL, 0x0080004100000000UL, 0x0000000220007c00UL,
  0x0000006420000424UL, 0x20007c0000000000UL, 0x20007bc440000000UL, 0x0000000000000064UL,
  0x2c007c0000800061UL, 0x2c00042400000002UL, 0x0000000000000064UL, 0x400000002c007c00UL,
  0x000000642c007bc4UL, 0x008000c100000000UL, 0x0000000234007c00UL, 0x0000006434000424UL,
  0x34007c0000000000UL, 0x34007bc440000000UL, 0x0000000000000064UL, 0x38007c0000800101UL,
  0x3800042400000002UL, 0x0000000000000064UL, 0x4000000038007c00UL, 0x0000006438007bc4UL,
  0x0080012100000000UL, 0x00802141000001bdUL, 0x000003503c007c00UL, 0x0f1001013c020123UL,
  0x10b7400600001100UL, 0x00cf0000000d00d0UL, 0x000e003c000c0000UL, 0x0000000000070108UL,
  0x00ffffbf3c0c0043UL, 0x0080216100000000UL, 0x0000004040007c00UL, 0x0f100101400200e3UL,
  0x10b7400000001100UL, 0x00cf0000000d00d0UL, 0x001d0f3c000c0000UL, 0x00000000400a7c00UL,
  0x00ffffbf400c0043UL, 0x0080218100000000UL, 0x0000004044007c00UL, 0x0f100101440200e3UL,
  0x10b7400000001100UL, 0x00cf0000000d00d0UL, 0x002c1e3c000c0000UL, 0x00000000440a7c00UL,
  0x00ffffbf440c0043UL, 0x008021a100000000UL, 0x0000004048007c00UL, 0x0f100101480200e3UL,
  0x10a3460000001100UL, 0x00cf0000000d00d0UL, 0x003b2d3c000c0000UL, 0x00000000480a7c00UL,
  0x00ffffbf480c0043UL, 0x008022a100000000UL, 0x0800000068000042UL, 0x68020123156000fcUL,
  0x0000000000090000UL, 0x000009e60000000eUL, 0x00000000000013cdUL, 0x078c03f200000000UL,
  0x680c004300000001UL, 0x2042204200000000UL, 0x00000001680b7c00UL, 0x00902f8269000783UL,
  0x0091359d0000e0edUL, 0x008f0af40000b39aUL, 0x008b0d920000b2ceUL, 0x005f454c0000cf76UL,
  0x00991c120000fdbcUL, 0x009332100000c011UL, 0x00923a6e00001226UL, 0x00910ab30000351bUL,
  0x008d0f6200008ca9UL, 0x007852cf0000b7a5UL, 0x009f20fd00000882UL, 0x008f2aa600008596UL,
  0x008f39860000ea02UL, 0x00910af3000085c2UL, 0x008f096c0000334cUL, 0x007854a500006e3fUL,
  0x00811baf00009244UL, 0x008f404200007b16UL, 0x009233480000b9b7UL, 0x008f0b34000038e6UL,
  0x00900f3e0000ae6cUL, 0x007b3dc000001f33UL, 0x009918f0000052f2UL, 0x0091339900006a5dUL,
  0x009220c4000083c8UL, 0x00910a7d00000c47UL, 0x00910fe6000007cdUL, 0x006e49000000e72dUL,
  0x00861b54000028caUL, 0x00802041000088cdUL, 0x0008c0001c007c00UL, 0x3430a4001c020123UL,
  0x02000010000d000dUL, 0x0000004000001a00UL, 0x0000000000000008UL, 0x0010000000000024UL,
  0x000000061c0c0042UL, 0x1c0d004300000007UL, 0x3431f63f00000010UL, 0x000000001c110043UL,
  0x0080210100000000UL, 0x0008c18434007c00UL, 0x70e0b80034020043UL, 0x340500c300003c00UL,
  0x0000000000000000UL, 0x0000000000000000UL, 0x0010000000000024UL, 0x00000006340c0042UL,
  0x340d004300000007UL, 0x70e0f43f00000001UL, 0x0000000034110043UL, 0x0080212100000008UL,
  0x0088c10038007c00UL, 0x343209d038020043UL, 0x380500c3000009e7UL, 0x0000000000000000UL,
  0x0000000000000000UL, 0x0010000000000024UL, 0x00000006380c0042UL, 0x380d004300000007UL,
  0x34321ddf00000010UL, 0x0000000038110043UL, 0x008020a100000000UL, 0x0008c00028007c00UL,
  0x3430a41028020123UL, 0x02000010000d000dUL, 0x0000004000001a00UL, 0x0000000000000008UL,
  0x0010000000000024UL, 0x00000006280c0042UL, 0x280d004300000007UL, 0x3431f63f00000010UL,
  0x0000000028110043UL, 0x0080202100000000UL, 0x0008c00018007c00UL, 0x3430a42018020123UL,
  0x02000010000d000dUL, 0x0000004000001a00UL, 0x0000000000000008UL, 0x0010000000000024UL,
  0x00000006180c0042UL, 0x180d004300000007UL, 0x3431f63f00000010UL, 0x0000000018110043UL,
  0x0080206100000000UL, 0x0008c00020007c00UL, 0x3430a43020020123UL, 0x02000010000d000dUL,
  0x0000004000001a00UL, 0x0000000000000008UL, 0x0010000000000024UL, 0x00000006200c0042UL,
  0x200d004300000007UL, 0x3431f63f00000010UL, 0x0000000020110043UL, 0x0080200100000000UL,
  0x0088010814007c00UL, 0x343209d014020043UL, 0x140500c3000009e7UL, 0x0000000000000000UL,
  0x0000000000000000UL, 0x0010000000000024UL, 0x00000006140c0042UL, 0x140d004300000007UL,
  0x34321ddf00000010UL, 0x0000000014110043UL, 0x008020e100000000UL, 0x0008000830007c00UL,
  0x3431f60030020123UL, 0x001e000f000d000dUL, 0x0000000f00000186UL, 0x000013ce00000002UL,
  0x0010000000000024UL, 0x00000006300c0042UL, 0x300d004300000007UL, 0x34320a0f00000002UL,
  0x0000000030110043UL, 0x10007c0000000000UL, 0x1000042400000002UL, 0x0000000000000064UL,
  0x4000000010007c00UL, 0x0000006410007bc4UL, 0x10007c0000000000UL, 0x10027c0000000001UL,
  0x10097c000000001bUL, 0x100c01830000002bUL, 0x0000001100000005UL, 0x0000000b00000013UL,
  0x0000001500000011UL, 0x0000001100000003UL, 0x0000000700000017UL, 0x0000001900000011UL,
  0x011b071a10247c00UL, 0x3000200114002001UL, 0x000003513c007c00UL, 0x0000004140007c00UL,
  0x0000004144007c00UL, 0x0000004148007c00UL, 0x1800200168002001UL, 0x200020011c002001UL,
  0x3400200128002001UL, 0x14007fe438002001UL, 0x0000000000000064UL, 0x0000006430007fe4UL,
  0x10027c0000000000UL, 0x10097c0000000000UL, 0x100c018300000000UL, 0x0000000000000000UL,
  0x0000000000000000UL, 0x0000000000000000UL, 0x0000000000000000UL, 0x0000000000000000UL,
  0x0000000000000000UL, 0x0000000010247c00UL, 0x0000000214007c00UL, 0x0000006414000424UL,
  0x14007c0000000000UL, 0x14007bc440000000UL, 0x0000000000000064UL, 0x30007c0000800001UL,
  0x3000042400000002UL, 0x0000000000000064UL, 0x4000000030007c00UL, 0x0000006430007bc4UL,
  0x008000e100000000UL, 0x000000023c007c00UL, 0x000000643c000424UL, 0x3c007c0000000000UL,
  0x3c007bc440000000UL, 0x0000000000000064UL, 0x40007c0000800141UL, 0x4000042400000002UL,
  0x0000000000000064UL, 0x4000000040007c00UL, 0x0000006440007bc4UL, 0x0080016100000000UL,
  0x0000000244007c00UL, 0x0000006444000424UL, 0x44007c0000000000UL, 0x44007bc440000000UL,
  0x0000000000000064UL, 0x48007c0000800181UL, 0x4800042400000002UL, 0x0000000000000064UL,
  0x4000000048007c00UL, 0x0000006448007bc4UL, 0x008001a100000000UL, 0x0800000268007c00UL,
  0x0000006468000424UL, 0x68007c0000000000UL, 0x68007bc448000000UL, 0x0000000000000064UL,
  0x18007c00008002a1UL, 0x1800042400000002UL, 0x0000000000000064UL, 0x4000000018007c00UL,
  0x0000006418007bc4UL, 0x0080002100000000UL, 0x000000021c007c00UL, 0x000000641c000424UL,
  0x1c007c0000000000UL, 0x1c007bc440000000UL, 0x0000000000000064UL, 0x20007c0000800041UL,
  0x2000042400000002UL, 0x0000000000000064UL, 0x4000000020007c00UL, 0x0000006420007bc4UL,
  0x0080006100000000UL, 0x0000000228007c00UL, 0x0000006428000424UL, 0x28007c0000000000UL,
  0x28007bc440000000UL, 0x0000000000000064UL, 0x34007c00008000a1UL, 0x3400042400000002UL,
  0x0000000000000064UL, 0x4000000034007c00UL, 0x0000006434007bc4UL, 0x0080010100000000UL,
  0x0000000238007c00UL, 0x0000006438000424UL, 0x38007c0000000000UL, 0x38007bc440000000UL,
  0x0000000000000064UL, 0x000001dd00800121UL, 0x000000000000000cUL
};

#define _ec_blob_network_1_address _ec_blob_network_1

// this macro returns true if _ec_blob_network_1 blob is encrypted and must be decrypted on the fly, false otherwise
#define LL_ATON_EC_MustDecryptBlob_network__ec_blob_network_1 false

// this function MUST be called ONLY ONCE once for initializing the network
bool LL_ATON_EC_Network_Init_network(void)
{
  return true;
}

// this function should be called before each inference
bool LL_ATON_EC_Inference_Init_network(void)
{
  return true;
}

#ifdef __cplusplus
}
#endif
